<unk>	0
<s>	0
</s>	0
<blk>	0
</blk>	0
<sep>	0
<A>	0
<B>	0
<C>	0
<D>	0
<E>	0
<F>	0
<G>	0
<H>	0
<I>	0
<J>	0
<K>	0
<L>	0
<M>	0
<N>	0
<O>	0
<P>	0
<Q>	0
<R>	0
<S>	0
<T>	0
<U>	0
<V>	0
<W>	0
<X>	0
<Y>	0
<Z>	0
<a>	0
<b>	0
<c>	0
<d>	0
<e>	0
<f>	0
<g>	0
<h>	0
<i>	0
<j>	0
<k>	0
<l>	0
<m>	0
<n>	0
<o>	0
<p>	0
<q>	0
<r>	0
<t>	0
<u>	0
<v>	0
<w>	0
<x>	0
<y>	0
<z>	0
▁	-2.55319
。	-3.44035
、	-3.56717
.	-3.656
)	-4.147
_	-4.15528
,	-4.26376
(	-4.46749
:	-4.64477
()	-4.6709
の	-4.94336
は	-4.95332
s	-5.04094
>>>	-5.09996
▁(	-5.16208
が	-5.22836
▁the	-5.28369
を	-5.30937
▁'	-5.36497
'	-5.41468
=	-5.46489
に	-5.51614
で	-5.72575
▁は	-5.7281
',	-5.73178
▁=	-5.76552
-	-5.89584
と	-5.89692
▁a	-5.89862
です	-5.96468
▁バージョン	-5.97975
▁is	-6.01351
"	-6.06757
/	-6.10274
▁の	-6.10372
▁to	-6.17534
a	-6.26604
ます	-6.28039
▁"	-6.29242
▁in	-6.30873
d	-6.32235
')	-6.3269
▁...	-6.37029
x	-6.37561
▁of	-6.38644
▁が	-6.39213
します	-6.39682
▁#	-6.41098
ing	-6.42042
2	-6.44428
('	-6.48539
1	-6.50667
▁for	-6.50679
▁and	-6.51141
r	-6.54932
n	-6.56567
c	-6.56694
None	-6.57468
b	-6.58934
から	-6.62605
▁で変更	-6.63578
▁__	-6.63601
e	-6.66309
]	-6.68367
その	-6.7152
▁を	-6.72694
▁be	-6.72974
▁1	-6.7321
ed	-6.73918
▁class	-6.74565
▁b	-6.74575
この	-6.74764
▁と	-6.75244
t	-6.75507
name	-6.76096
▁Python	-6.77413
▁os	-6.78249
▁で追加	-6.80039
する	-6.82413
):	-6.82625
f	-6.83972
や	-6.84519
i	-6.87409
▁None	-6.87457
も	-6.87536
には	-6.88536
▁import	-6.89411
を返します	-6.91807
か	-6.91822
__	-6.91977
▁x	-6.93155
▁with	-6.93757
3	-6.95057
▁print	-6.96471
として	-6.97655
;	-6.98313
▁0	-6.9971
▁object	-7.00833
では	-7.01272
し	-7.03413
>	-7.06845
▁from	-7.09842
▁as	-7.10634
▁The	-7.11269
p	-7.1149
▁if	-7.11708
\	-7.11727
されます	-7.13363
▁で	-7.13491
▁2	-7.14886
これは	-7.14886
場合	-7.15161
is	-7.15819
▁True	-7.15941
オブジェクト	-7.16538
▁def	-7.16877
='	-7.16914
▁or	-7.17202
例えば	-7.17478
文字列	-7.1749
y	-7.17579
▁return	-7.18626
▁not	-7.20512
S	-7.22281
値	-7.23152
▁に	-7.23932
▁<	-7.24452
▁オブジェクト	-7.24915
▁-	-7.2593
m	-7.2636
関数	-7.26593
get	-7.26599
",	-7.27256
された	-7.27775
C	-7.28314
または	-7.28386
▁を返します	-7.28691
0	-7.30069
[	-7.30316
▁A	-7.3083
▁bytes	-7.31401
ファイル	-7.32323
な	-7.32905
▁C	-7.32972
__()	-7.33027
い	-7.33093
self	-7.33224
▁an	-7.33385
した	-7.35699
引数	-7.36305
▁value	-7.37799
▁*	-7.37872
])	-7.3858
て	-7.41386
して	-7.41978
る	-7.42185
h	-7.44148
l	-7.4422
▁および	-7.44831
("	-7.45013
▁parser	-7.45719
py	-7.45754
▁data	-7.45846
型	-7.46451
▁file	-7.47329
▁that	-7.49634
▁[	-7.49743
")	-7.49881
た	-7.50017
path	-7.50065
▁です	-7.5029
g	-7.50331
文字	-7.52759
▁False	-7.52943
er	-7.53066
される	-7.53772
will	-7.54009
▁set	-7.54016
▁%	-7.54242
▁name	-7.54962
4	-7.55318
▁f	-7.55339
▁3.3	-7.56533
▁are	-7.57963
他の	-7.58092
および	-7.58229
行	-7.58367
o	-7.58588
file	-7.58824
▁by	-7.58841
E	-7.5888
▁p	-7.59514
[,	-7.59989
▁it	-7.60057
.__	-7.60153
foo	-7.60213
要素	-7.60741
set	-7.61213
':	-7.61766
▁注釈	-7.62411
▁If	-7.62612
になります	-7.62916
args	-7.63201
▁path	-7.63711
▁c	-7.64347
▁3	-7.6531
ly	-7.65751
モジュール	-7.6593
u	-7.65959
クラス	-7.66229
O	-7.66674
▁exception	-7.66985
属性	-7.6705
名	-7.67278
data	-7.67381
メソッド	-7.67542
によって	-7.677
同じ	-7.67784
▁datetime	-7.68028
B	-7.68261
▁この	-7.68431
in	-7.69203
▁Unix	-7.69263
▁can	-7.69433
▁+	-7.69621
A	-7.70043
v	-7.70063
6	-7.70117
▁socket	-7.70339
add	-7.71511
データ	-7.71975
全ての	-7.72049
▁引数	-7.72179
▁や	-7.72628
▁self	-7.73331
できます	-7.73859
*	-7.74022
w	-7.74494
M	-7.74692
Error	-7.74935
__(	-7.75766
ー	-7.76668
▁on	-7.77368
▁time	-7.78236
Python	-7.79984
or	-7.80531
▁Windows	-7.8126
P	-7.81281
▁default	-7.81307
リスト	-7.81566
整数	-7.81819
D	-7.82031
▁n	-7.82412
なら	-7.82623
▁|	-7.8308
処理	-7.83465
▁Decimal	-7.83543
']	-7.83711
▁==	-7.83942
▁function	-7.84251
▁y	-7.84484
ない	-7.84948
▁3.6	-7.85596
▁を参照してください	-7.86007
L	-7.86484
▁this	-7.86574
9	-7.86632
▁get	-7.86665
▁sys	-7.86888
に対して	-7.87617
すべての	-7.87626
辞書	-7.87816
False	-7.88815
新しい	-7.89194
▁type	-7.89344
True	-7.89576
入力	-7.89795
▁d	-7.8998
like	-7.90062
▁---	-7.90074
▁4	-7.90753
▁str	-7.90879
出力	-7.92019
}	-7.93674
▁3.2	-7.93785
され	-7.93849
▁から	-7.93903
▁line	-7.93991
数	-7.95067
▁re	-7.95072
7	-7.95499
ません	-7.95854
k	-7.95916
▁10	-7.96166
1,	-7.96203
▁モジュール	-7.96388
time	-7.96456
▁ctypes	-7.97915
▁mode	-7.97932
環境	-7.97954
F	-7.98241
▁call	-7.98533
▁list	-7.98907
▁key	-7.99529
ために	-7.99624
設定	-8.00017
value	-8.00297
表現	-8.00817
名前	-8.0102
を含む	-8.01492
以下の	-8.01806
T	-8.02156
▁では	-8.0232
▁xml	-8.02416
▁i	-8.0259
より	-8.02797
ディレクトリ	-8.02949
でも	-8.03027
に対する	-8.03101
呼び出し	-8.03102
▁3.4	-8.03465
id	-8.03785
実装	-8.04143
す	-8.04675
fd	-8.04783
実行	-8.04915
また	-8.05109
つ	-8.05953
▁5	-8.05967
▁used	-8.06101
info	-8.06337
エラー	-8.06794
を使って	-8.07089
▁メソッド	-8.07096
format	-8.07137
▁3.5	-8.0719
操作	-8.07459
2,	-8.07541
▁pickle	-8.07545
bar	-8.08191
▁HTTP	-8.08279
もの	-8.08466
▁または	-8.08564
デフォルト	-8.08737
▁string	-8.09167
▁--	-8.09602
ある	-8.09655
type	-8.09696
オプション	-8.10195
コード	-8.10439
があります	-8.10859
+	-8.11294
あるいは	-8.11464
キー	-8.11571
5	-8.11766
▁Th	-8.12336
▁3.7	-8.12407
([	-8.12709
init	-8.13414
▁の場合	-8.13534
されている	-8.13545
▁format	-8.13754
argument	-8.1427
string	-8.14414
変更	-8.14474
それ	-8.14491
parse	-8.14689
参照	-8.15236
タプル	-8.15488
ような	-8.15784
10	-8.159
list	-8.15948
プロセス	-8.16018
例外	-8.16084
▁arguments	-8.17603
I	-8.17822
▁を送出します	-8.18122
く	-8.182
▁m	-8.1823
▁method	-8.18404
次の	-8.1849
非	-8.18666
size	-8.18757
各	-8.18786
read	-8.19102
to	-8.19389
機能	-8.19569
できる	-8.19603
W	-8.19671
フォーマット	-8.19697
▁int	-8.19856
dir	-8.1988
N	-8.19919
▁::	-8.19969
▁ASCII	-8.2076
▁ValueError	-8.20806
▁RFC	-8.20976
パス	-8.21005
である	-8.21473
のみ	-8.21653
定義	-8.21931
現在の	-8.22009
le	-8.22054
を指定します	-8.22068
int	-8.22079
については	-8.22529
▁3.8	-8.22712
▁other	-8.22874
3.	-8.22896
もし	-8.23214
▁encoding	-8.2337
R	-8.23774
▁argument	-8.23905
="	-8.23906
を持つ	-8.24041
▁start	-8.24102
り	-8.24237
なければなりません	-8.2433
re	-8.24398
key	-8.24489
▁use	-8.24812
演算	-8.24858
▁が送出されます	-8.25272
このメソッドは	-8.25827
ています	-8.25848
比較	-8.26045
Y	-8.2613
▁iterable	-8.26182
▁new	-8.26235
だけ	-8.26686
▁open	-8.27133
al	-8.27179
アクセス	-8.27869
es	-8.28318
▁timeout	-8.29183
値を	-8.29368
▁8	-8.29527
への	-8.30012
するために	-8.30669
▁P	-8.30706
8	-8.30867
on	-8.30919
任意の	-8.31447
ar	-8.31508
▁signal	-8.31684
▁context	-8.32399
ので	-8.32417
形式	-8.32516
0,	-8.32824
▁range	-8.32972
シーケンス	-8.33141
▁r	-8.33445
オブジェクトの	-8.33511
▁文	-8.33878
▁**	-8.34258
イベント	-8.34389
コンテキスト	-8.34459
▁S	-8.34477
メッセージ	-8.34482
例	-8.34568
スレッド	-8.34669
▁no	-8.34734
en	-8.3482
オブジェクトは	-8.34964
▁errors	-8.35148
▁ssl	-8.35242
▁raise	-8.35438
している	-8.35622
module	-8.36102
▁インスタンス	-8.36149
フラグ	-8.36655
://	-8.3671
変換	-8.3673
org	-8.37056
ファイル名	-8.37403
▁which	-8.37509
呼び出されます	-8.37637
へ	-8.3789
データを	-8.37929
ている	-8.3832
▁when	-8.38749
open	-8.38811
close	-8.39258
it	-8.39455
▁float	-8.39556
方法	-8.39564
場合は	-8.39607
str	-8.3968
的な	-8.39737
class	-8.39853
at	-8.39858
が追加されました	-8.3992
▁クラス	-8.40098
▁API	-8.4017
システム	-8.40179
▁t	-8.40396
X	-8.40488
▁['	-8.40545
iterable	-8.40551
・	-8.41084
これらの	-8.41115
%	-8.41154
▁stat	-8.41518
インスタンス	-8.41639
▁利用可能な	-8.41803
値が	-8.41936
ことができます	-8.42221
▁multiprocessing	-8.4228
▁属性	-8.42357
▁URL	-8.42468
しています	-8.42592
▁values	-8.42678
でなければなりません	-8.42875
bytes	-8.42898
ファイル記述子	-8.42904
内の	-8.43395
ときに	-8.43399
一	-8.43481
▁bytearray	-8.44071
ロック	-8.44085
32	-8.44288
▁1,	-8.44721
▁のような	-8.44792
▁end	-8.45013
中の	-8.45184
start	-8.45847
別の	-8.45872
複数の	-8.46002
時に	-8.46037
られます	-8.46197
つの	-8.46507
00	-8.46612
位置	-8.46786
▁number	-8.47235
▁logging	-8.47331
▁urllib	-8.47334
状態	-8.47749
デフォルトでは	-8.47806
▁XML	-8.48139
▁pass	-8.48318
数値	-8.4836
ion	-8.48502
U	-8.48598
▁curses	-8.48607
式	-8.48775
通常の	-8.4883
H	-8.48959
▁last	-8.49049
▁at	-8.49206
になる	-8.49288
値は	-8.49361
与えられた	-8.49548
['	-8.49641
▁errno	-8.49723
可能な	-8.50113
しません	-8.50174
いくつかの	-8.50195
ように	-8.50196
▁I	-8.50767
という	-8.50929
dict	-8.51472
ファイルの	-8.51503
について	-8.51518
!	-8.5178
write	-8.51827
プロトコル	-8.51851
における	-8.52067
代入	-8.52412
request	-8.52784
時間	-8.53396
▁関数	-8.53534
▁read	-8.53581
▁args	-8.53863
ブロック	-8.54007
点	-8.5404
特定の	-8.5405
new	-8.54203
default	-8.54276
▁parameter	-8.54334
▁PEP	-8.54365
アドレス	-8.54393
▁D	-8.54394
そして	-8.54413
まで	-8.54432
ソケット	-8.54453
▁process	-8.54507
▁all	-8.54762
用	-8.54871
かもしれません	-8.54891
python	-8.54935
▁モジュールは	-8.54954
▁try	-8.55002
2.	-8.55339
パラメータ	-8.55648
こと	-8.5575
ではなく	-8.55789
▁Return	-8.56129
ハンドラ	-8.56179
バイト	-8.5628
stdin	-8.56421
って	-8.5668
?	-8.5669
▁text	-8.57253
▁you	-8.57365
デフォルトの	-8.57403
using	-8.57933
を返す	-8.5798
長さ	-8.58004
▁base	-8.58157
テキスト	-8.58201
グループ	-8.58214
abc	-8.58219
j	-8.58512
split	-8.58535
指定された	-8.58586
▁only	-8.58673
指定	-8.58701
error	-8.58763
st	-8.58935
▁except	-8.59025
▁has	-8.59047
とき	-8.59164
▁参考	-8.59257
上	-8.59268
obj	-8.59342
▁{	-8.59649
など	-8.59707
may	-8.6
時	-8.60156
にある	-8.60374
▁wa	-8.60398
集合	-8.60469
クライアント	-8.60691
引数は	-8.60966
from	-8.60999
▁yield	-8.61142
3,	-8.61159
▁Lib	-8.61193
▁tuple	-8.61199
レベル	-8.61225
all	-8.61357
▁http	-8.6144
ゼロ	-8.61541
部分	-8.61574
終了	-8.61752
代わりに	-8.61773
▁operator	-8.61805
an	-8.61812
▁date	-8.61882
サポート	-8.61909
ための	-8.61912
16	-8.62014
com	-8.62017
<	-8.62226
ら	-8.62875
されません	-8.62992
インポート	-8.63003
セクション	-8.63042
すると	-8.63049
の場合	-8.63292
▁B	-8.63315
使用	-8.63364
この関数は	-8.63366
追加	-8.63612
バイト列	-8.63615
ため	-8.63699
フィールド	-8.63747
▁<=	-8.63876
ファイルを	-8.63955
▁dict	-8.64009
text	-8.64263
▁Unicode	-8.64345
った	-8.64345
▁window	-8.64356
sqlite	-8.64368
▁help	-8.6443
内で	-8.64446
を表す	-8.6448
プログラム	-8.64543
することができます	-8.64583
常に	-8.64805
▁follow	-8.64901
え	-8.65122
▁ソースコード	-8.65201
▁buffer	-8.65255
た場合	-8.65654
G	-8.65697
変数	-8.6571
▁attribute	-8.65763
対応する	-8.65802
▁/	-8.65843
▁OSError	-8.65906
most	-8.65955
接続	-8.66393
▁In	-8.66467
item	-8.66574
▁module	-8.66612
▁len	-8.66645
▁un	-8.66991
▁one	-8.67025
されています	-8.67233
そうでなければ	-8.67412
表示	-8.67541
▁には	-8.6756
オブジェクトを返します	-8.67586
http	-8.67587
オブジェクトを	-8.67728
z	-8.68067
▁つの	-8.68141
それぞれ	-8.68251
最初の	-8.68931
▁3.9	-8.68975
▁tkinter	-8.69127
ウィジェット	-8.69409
異なる	-8.69454
line	-8.69471
性	-8.69761
context	-8.69956
socket	-8.70043
▁フラグ	-8.70109
コマンド	-8.70168
でしょう	-8.7039
時刻	-8.70402
後	-8.70486
適切な	-8.70562
により	-8.70623
バッファ	-8.70771
server	-8.7089
func	-8.70892
4.	-8.70951
エンコード	-8.71054
ストリーム	-8.7112
中に	-8.71195
ウィンドウ	-8.71274
▁con	-8.7185
www	-8.72154
▁W	-8.7217
多くの	-8.72272
サイズ	-8.72357
▁flags	-8.72392
64	-8.72565
オプションの	-8.72595
▁server	-8.72611
マッチ	-8.72696
Handler	-8.72754
名前空間	-8.72766
5,	-8.73038
▁16	-8.73098
たり	-8.73205
生成	-8.73428
▁オブジェクトは	-8.7374
▁を使って	-8.73744
▁protocol	-8.7381
un	-8.73829
▁example	-8.73863
▁size	-8.73918
▁argparse	-8.7403
と同じ	-8.74053
▁code	-8.74143
アプリケーション	-8.74325
文	-8.74335
場合には	-8.74454
ものです	-8.74714
の名前	-8.74763
拡張	-8.74847
▁E	-8.74861
中	-8.75093
▁specified	-8.75096
ArgumentParser	-8.75316
▁メソッドは	-8.75375
直接	-8.75405
se	-8.75406
os	-8.75433
▁tzinfo	-8.75752
▁h	-8.75802
化	-8.75907
しかし	-8.76075
のために	-8.76232
▁error	-8.76245
解析	-8.76298
len	-8.76721
のための	-8.76764
二つの	-8.76826
▁filename	-8.76832
▁引数は	-8.76926
▁close	-8.77018
新たな	-8.7713
▁than	-8.77135
わ	-8.77462
▁dir	-8.77501
year	-8.7758
▁math	-8.77593
▁KEY	-8.77595
ではありません	-8.7764
▁Path	-8.77867
エンコーディング	-8.77933
▁else	-8.7799
must	-8.78059
▁TypeError	-8.78094
my	-8.78132
デフォルト値	-8.78133
▁It	-8.78197
キーワード引数	-8.78306
一つの	-8.78395
▁id	-8.78434
上で	-8.78444
Section	-8.78851
ことに注意してください	-8.78919
▁timedelta	-8.79097
となります	-8.79151
前に	-8.793
ation	-8.79339
ン	-8.79699
(*	-8.79746
▁message	-8.79851
ならば	-8.79901
これ	-8.80067
▁SSL	-8.80082
url	-8.80591
でない	-8.80611
#	-8.80689
意味	-8.80713
▁F	-8.80774
デフォルトは	-8.80863
main	-8.8088
において	-8.80891
定数	-8.80925
通常	-8.80927
▁この関数は	-8.80982
のリスト	-8.81257
filename	-8.81314
ル	-8.81467
end	-8.8197
分	-8.82118
▁文字列	-8.82126
mode	-8.8214
を提供します	-8.82314
▁文字	-8.82331
▁should	-8.82378
一つ	-8.82665
リテラル	-8.82793
XML	-8.82837
き	-8.82847
どの	-8.83061
すなわち	-8.83276
の値	-8.83293
▁6	-8.83296
▁event	-8.83511
as	-8.83538
可能	-8.83541
▁allow	-8.83734
float	-8.83817
▁foo	-8.84017
識別子	-8.84165
ほとんどの	-8.84408
▁ファイル	-8.84412
返される	-8.84463
られ	-8.84466
-8	-8.8451
▁level	-8.84517
V	-8.84529
TLS	-8.84803
▁any	-8.84876
▁SSLContext	-8.84904
iter	-8.85017
的	-8.85132
にも	-8.85164
▁result	-8.85232
K	-8.85347
▁dst	-8.85608
▁File	-8.85702
されていない	-8.85706
▁節	-8.85708
モード	-8.8573
ビット	-8.85738
もしくは	-8.85785
▁decimal	-8.8598
txt	-8.8603
計算	-8.86185
を行う	-8.86414
め	-8.86492
値の	-8.86523
'])	-8.86716
要求	-8.86771
要素を	-8.86848
▁do	-8.86929
書き込み	-8.86938
▁recent	-8.86963
イテレータ	-8.87224
さ	-8.87234
spec	-8.87519
かどうか	-8.87542
▁になります	-8.87647
▁array	-8.87852
上の	-8.8789
スライス	-8.87901
つまり	-8.87914
その他の	-8.88206
ですが	-8.88279
展開	-8.88292
インタフェース	-8.88297
オブジェクトが	-8.88309
サーバ	-8.88315
▁7	-8.88383
したり	-8.8848
を作成します	-8.88514
▁For	-8.88621
さらに	-8.88826
問題	-8.8886
ただし	-8.88887
▁create	-8.8909
マッピング	-8.89348
ました	-8.8936
情報を	-8.89394
▁dt	-8.89438
に関する	-8.89469
チェック	-8.89818
最も	-8.89883
join	-8.89894
利用	-8.89992
場合に	-8.90293
▁instance	-8.90377
▁と等価です	-8.90432
真	-8.90541
group	-8.90601
▁have	-8.9082
▁long	-8.90891
証明書	-8.90933
ic	-8.91084
[0]	-8.9113
ま	-8.91339
▁\	-8.91359
▁collections	-8.91381
データベース	-8.91395
▁readline	-8.91508
▁port	-8.91651
ヘッダ	-8.91708
仕様	-8.91754
▁handle	-8.91918
制限	-8.91924
▁item	-8.91925
であり	-8.92014
▁true	-8.92132
パッケージ	-8.92301
を指定する	-8.92388
next	-8.92447
ch	-8.92501
最大	-8.9253
▁k	-8.92553
▁first	-8.92592
関数の	-8.92671
▁DOM	-8.93046
圧縮	-8.93068
なければ	-8.93115
による	-8.93118
user	-8.93131
シグナル	-8.93298
stat	-8.93381
開始	-8.93438
▁によって	-8.93492
結果は	-8.93536
メモリ	-8.93636
のような	-8.93646
ことで	-8.93674
code	-8.93746
▁Tk	-8.93806
▁このメソッドは	-8.93888
▁hash	-8.93965
append	-8.94144
は常に	-8.94219
作成	-8.94271
検索	-8.94615
handler	-8.94678
▁width	-8.94804
インターフェース	-8.9488
▁-1	-8.95043
宣言	-8.95176
▁support	-8.95232
動作	-8.95457
red	-8.95461
コピー	-8.9558
しない	-8.95751
プロキシ	-8.95792
Traceback	-8.95793
番号	-8.95961
▁wait	-8.96131
el	-8.96338
level	-8.96435
NO	-8.96644
▁same	-8.96782
Q	-8.96802
ility	-8.96812
ス	-8.9682
ようになりました	-8.9696
▁バイト	-8.96961
を使う	-8.972
れ	-8.97276
を持ちます	-8.97379
match	-8.97452
を生成する	-8.97517
create	-8.97517
それは	-8.97529
をサポートする	-8.97707
map	-8.97939
▁cur	-8.98001
▁型	-8.98059
必要があります	-8.98159
▁called	-8.98191
でき	-8.98221
▁objects	-8.98335
ロード	-8.98521
▁obj	-8.98629
型の	-8.98711
を参照してください	-8.98744
ト	-8.98896
▁v	-8.98919
タブ	-8.9892
であれば	-8.98965
▁version	-8.99125
モジュールの	-8.99129
要素の	-8.99264
▁l	-8.99461
すべて	-8.99598
際に	-8.99601
buffer	-8.9971
▁IMAP	-8.99758
▁{'	-8.99782
▁input	-8.99802
表	-8.99855
ループ	-8.99981
られる	-8.99985
プラットフォーム	-9.00118
▁stream	-9.00153
標準の	-9.00238
ことを	-9.00376
的に	-9.00385
1.	-9.00533
からです	-9.0082
▁output	-9.00904
spam	-9.00956
help	-9.00967
タイムアウト	-9.01045
浮動小数点数	-9.01147
最後に	-9.01166
出	-9.01176
▁random	-9.01227
コンストラクタ	-9.01366
関数は	-9.01399
列	-9.01477
bin	-9.0159
▁9	-9.01802
それぞれの	-9.0196
をサポートしています	-9.01981
パターン	-9.02016
vailab	-9.02144
既存の	-9.02144
▁but	-9.02173
元の	-9.02281
構文	-9.02458
▁max	-9.0249
▁address	-9.02524
がある	-9.02529
14	-9.02567
スクリプト	-9.02729
最初に	-9.02744
子	-9.02942
no	-9.03117
幅	-9.0323
不	-9.03266
▁以下の	-9.03362
dom	-9.03375
▁threading	-9.03395
正規表現	-9.03438
</	-9.03516
▁write	-9.03617
制御	-9.03689
▁some	-9.03769
み	-9.03777
ID	-9.03886
するための	-9.03926
"]	-9.03955
th	-9.04021
実	-9.04065
▁オブジェクトの	-9.04142
▁化	-9.04184
要素は	-9.04291
able	-9.04371
の中で	-9.04392
Name	-9.04395
よりも	-9.04399
再	-9.04426
▁add	-9.04499
ファイルオブジェクト	-9.04655
▁"<	-9.04661
▁TLS	-9.04717
▁now	-9.04765
れば	-9.05015
▁M	-9.05186
単一の	-9.05195
▁UTC	-9.05238
クラスの	-9.05301
サンプル	-9.05465
精度	-9.05474
フィルタ	-9.05477
▁given	-9.05502
▁system	-9.05503
]]	-9.05544
host	-9.05588
全て	-9.05695
date	-9.0577
バージョン	-9.05776
▁@	-9.05808
▁raised	-9.05844
▁order	-9.05935
▁という	-9.05959
12	-9.05971
▁io	-9.06061
ther	-9.06388
20	-9.06396
空白	-9.06406
▁user	-9.06605
▁OpenSSL	-9.0685
できない	-9.06963
演算子	-9.07014
▁('	-9.07047
なく	-9.07047
定	-9.07312
▁パラメータ	-9.07414
結果	-9.07479
>"	-9.07536
▁while	-9.07906
データの	-9.08034
into	-9.08266
デコード	-9.08388
束縛	-9.08526
▁exit	-9.08594
...	-9.08622
et	-9.08757
▁queue	-9.08757
▁copy	-9.08971
symlinks	-9.09082
配列	-9.09089
num	-9.09155
Z	-9.09163
24	-9.09164
▁option	-9.09171
空	-9.09309
register	-9.09332
▁offset	-9.09341
method	-9.09352
▁non	-9.094
hex	-9.0948
xml	-9.09509
を設定します	-9.09558
▁R	-9.09599
-1	-9.09721
▁returned	-9.09729
オプション引数	-9.09786
ことは	-9.09794
sub	-9.09869
▁のインスタンス	-9.09884
ない場合	-9.09893
送出	-9.09904
▁Namespace	-9.09957
正	-9.09967
hello	-9.10103
'),	-9.10109
符号	-9.10136
bit	-9.10211
ドキュメント	-9.10217
空文字列	-9.10226
かつ	-9.10425
います	-9.10483
ります	-9.10679
nd	-9.10685
stdout	-9.10764
ず	-9.10771
下	-9.10787
言語	-9.10851
ユーザー	-9.10885
よく	-9.11266
等	-9.11285
▁このモジュールは	-9.11317
クッキー	-9.11519
RE	-9.12033
other	-9.12037
point	-9.12074
address	-9.12085
認証	-9.12134
hash	-9.12158
できません	-9.1216
前	-9.12165
してください	-9.12218
引数が	-9.12242
呼び出し可能オブジェクト	-9.12279
ソース	-9.12299
▁types	-9.123
ジェネレータ	-9.12313
ち	-9.12464
様々な	-9.12498
▁memory	-9.12629
▁として	-9.12666
しか	-9.12692
ことがあります	-9.12778
▁OS	-9.12802
▁Linux	-9.1285
キュー	-9.13133
▁find	-9.1316
を作成する	-9.13626
デバイス	-9.13691
▁such	-9.13717
まず	-9.13759
expr	-9.13857
▁-->	-9.13999
ノード	-9.14047
方	-9.14195
arg	-9.14367
MM	-9.14495
現在	-9.14513
有効	-9.14626
hostname	-9.14817
6,	-9.1488
バイナリ	-9.14893
自動的に	-9.1492
▁ID	-9.14933
▁more	-9.14977
▁L	-9.15003
が返されます	-9.151
4,	-9.15179
になりました	-9.15253
01	-9.15416
win	-9.15421
handlers	-9.15464
これらは	-9.15477
からの	-9.15496
▁と同じ	-9.15613
ることができます	-9.15685
11	-9.16027
条件	-9.16067
先	-9.16076
example	-9.16085
メールボックス	-9.16166
スコープ	-9.16193
「	-9.16202
」	-9.16202
sax	-9.16222
q	-9.16247
はありません	-9.16377
▁JSON	-9.16454
こ	-9.16498
文字列の	-9.16533
引数として	-9.16584
▁st	-9.16706
のサポート	-9.16708
('/	-9.16794
load	-9.16805
▁クラスは	-9.16946
戻り値	-9.16974
文字列を	-9.16998
ポインタ	-9.17127
ok	-9.17198
後に	-9.17434
function	-9.17463
ド	-9.17466
スペース	-9.17468
たとえば	-9.1747
per	-9.17479
必要な	-9.17509
encode	-9.1754
▁check	-9.17618
▁Process	-9.17941
{	-9.17946
form	-9.17998
値を返します	-9.18021
丸め	-9.18112
▁func	-9.18134
ること	-9.18193
▁subprocess	-9.18272
範囲	-9.18322
読み込み	-9.18341
▁tar	-9.18442
▁SMTP	-9.18547
返します	-9.18599
サーバー	-9.18663
ファイルは	-9.1867
▁audit	-9.1875
char	-9.18781
count	-9.1879
▁thread	-9.1883
object	-9.1885
up	-9.18973
サブクラス	-9.19028
▁out	-9.19075
Raises	-9.19154
▁POSIX	-9.19224
▁tag	-9.19323
した場合	-9.19447
▁directory	-9.19449
位置引数	-9.19517
親	-9.1963
保存	-9.1964
▁[]	-9.1965
▁available	-9.19776
▁Enum	-9.19788
▁モジュールの	-9.19817
う	-9.199
のある	-9.19906
タイプ	-9.19931
け	-9.19944
となる	-9.20017
errors	-9.20029
ent	-9.2004
シェル	-9.20043
title	-9.20049
コメント	-9.20049
▁root	-9.20197
find	-9.20211
index	-9.20224
version	-9.20228
client	-9.20235
全体	-9.20278
キャッシュ	-9.20288
HTTP	-9.20291
▁expression	-9.20305
thread	-9.20384
ライブラリ	-9.20427
選択	-9.20517
を示します	-9.20687
追加の	-9.20804
改行	-9.21022
--	-9.21062
if	-9.21139
one	-9.21188
Type	-9.212
イテラブル	-9.21291
よう	-9.21302
lo	-9.21314
▁これは	-9.2137
ロガー	-9.21376
replace	-9.21381
▁When	-9.21388
ascii	-9.21435
特に	-9.21469
log	-9.21504
range	-9.21623
指定した	-9.2167
▁block	-9.21738
要素が	-9.21919
▁例えば	-9.22008
▁action	-9.22009
ファイルが	-9.22017
デフォルトで	-9.22084
lib	-9.22106
tar	-9.22126
im	-9.22243
▁$	-9.22384
最	-9.22438
▁count	-9.22442
することで	-9.225
▁X	-9.22562
を表します	-9.22639
登録	-9.22658
▁does	-9.22664
左	-9.22678
保	-9.22695
関係	-9.22697
▁N	-9.22754
からなる	-9.22852
単に	-9.2288
とは	-9.22993
SSL	-9.23118
not	-9.23148
詳細は	-9.23162
('--	-9.23166
timeout	-9.23168
エントリ	-9.23281
the	-9.23323
inter	-9.23457
文書	-9.23564
マップ	-9.23678
このメソッド	-9.23755
者	-9.24016
ファインダー	-9.2405
tix	-9.24052
expat	-9.24061
スタック	-9.24094
付き	-9.24107
節	-9.24161
文字列は	-9.24163
インデックス	-9.24392
▁local	-9.24448
▁Popen	-9.24504
connect	-9.2452
▁optional	-9.24546
順序	-9.24686
▁parse	-9.24813
'\	-9.24881
▁'__	-9.25041
IN	-9.25113
us	-9.25231
ときは	-9.25338
場合があります	-9.2535
ネットワーク	-9.25415
environ	-9.25418
Hello	-9.25419
▁shared	-9.25427
▁deque	-9.25686
てください	-9.25758
▁repr	-9.259
挿入	-9.26287
注意	-9.26366
▁next	-9.26441
パース	-9.26478
▁raw	-9.26504
▁fd	-9.2658
提供	-9.2659
せ	-9.26645
関数が	-9.26728
リ	-9.26733
規則	-9.26808
これにより	-9.26835
られた	-9.2702
▁オプション	-9.27094
メソッドは	-9.27201
を実装する	-9.27285
での	-9.27295
parser	-9.27327
しなければなりません	-9.27438
AL	-9.27546
max	-9.27604
リストの	-9.27668
▁returns	-9.27806
するか	-9.28074
dev	-9.28156
▁make	-9.28163
out	-9.28192
ア	-9.282
▁run	-9.28208
and	-9.28221
ED	-9.28228
必要	-9.2823
を提供しています	-9.2829
ab	-9.28303
対	-9.28478
opt	-9.28495
取得	-9.28539
この場合	-9.28963
▁struct	-9.29045
させる	-9.29071
するには	-9.29098
repr	-9.29134
offset	-9.29138
encoding	-9.29151
▁flag	-9.29163
section	-9.29217
に変換します	-9.29237
明示的に	-9.29329
適用	-9.29541
=0	-9.29598
内	-9.29623
何らかの	-9.29645
ERROR	-9.29647
組み込み	-9.29689
文字列です	-9.29758
のように	-9.29892
共有	-9.29946
▁row	-9.302
完全な	-9.30292
'}	-9.30309
execute	-9.30321
ると	-9.30324
▁mean	-9.30363
lock	-9.30412
を示す	-9.30571
html	-9.30656
間	-9.30838
偽	-9.30861
▁20	-9.30889
内に	-9.30948
▁0,	-9.30993
▁after	-9.31034
応答	-9.31094
受け入れるようになりました	-9.31096
のうち	-9.31131
なので	-9.31145
大文字	-9.31314
▁K	-9.31385
目的	-9.31509
組み込みの	-9.3165
型は	-9.31703
▁と同じです	-9.31764
数字	-9.31841
に対応する	-9.3202
のは	-9.32109
それが	-9.32122
中で	-9.32173
▁など	-9.32197
parsers	-9.32209
▁sub	-9.3238
▁z	-9.32427
用の	-9.32441
セット	-9.32469
環境変数	-9.32549
一般的な	-9.32564
▁also	-9.32568
["	-9.32692
説明	-9.32843
▁Fraction	-9.32874
▁3.1	-9.32914
▁Set	-9.32976
リクエスト	-9.33149
使う	-9.33212
内部	-9.33248
ir	-9.3334
取り	-9.3336
▁サーバ	-9.33505
使われる	-9.33549
エスケープ	-9.33554
記述	-9.33641
空の	-9.33656
結果の	-9.33717
▁msg	-9.33732
with	-9.33926
sys	-9.33942
空白文字	-9.33974
パーサ	-9.34015
語	-9.34024
そう	-9.34056
バックスラッシュ	-9.34058
baz	-9.34063
進	-9.3411
▁keyword	-9.34149
▁added	-9.34267
(1)	-9.34335
場所	-9.34367
これら	-9.34378
▁の値	-9.34414
▁On	-9.34431
システムコール	-9.34539
▁current	-9.34586
そのため	-9.34603
何も	-9.34976
使われます	-9.34976
▁HTML	-9.35125
digest	-9.35212
long	-9.35404
length	-9.35526
kwargs	-9.35546
only	-9.35547
ことが	-9.35556
繰り返し	-9.35569
copy	-9.35573
Windows	-9.35591
属性を	-9.35648
Tk	-9.35673
000	-9.35741
▁element	-9.35752
を使用する	-9.35774
オブジェクトに	-9.35781
▁T	-9.35795
付け	-9.361
項目	-9.3611
▁pool	-9.36138
を提供する	-9.36141
▁"""	-9.36246
sh	-9.36347
▁か	-9.36395
引数を	-9.36403
▁FTP	-9.36532
ever	-9.36559
doc	-9.36634
▁two	-9.36655
最後の	-9.36731
日	-9.36835
▁指定された	-9.36907
▁child	-9.37045
▁del	-9.37057
部	-9.37066
local	-9.37073
コンテナ	-9.3711
トークン	-9.37112
decode	-9.3715
strict	-9.37194
message	-9.37206
Decimal	-9.37223
Unix	-9.37224
eggs	-9.37227
ローカル	-9.37255
last	-9.37267
▁handler	-9.37462
を持っています	-9.37521
の内容	-9.37533
ns	-9.37548
▁NotImplemented	-9.37566
管理	-9.37798
送信	-9.37863
▁integer	-9.37867
=0)	-9.38002
addr	-9.38258
op	-9.38278
▁のサブクラス	-9.38301
ここで	-9.38394
▁11	-9.38499
▁sequence	-9.38526
▁G	-9.38542
データ型	-9.38578
動	-9.38613
を作る	-9.3865
エンティティ	-9.38665
response	-9.38673
パック	-9.38676
▁csv	-9.38738
▁spam	-9.38821
である場合	-9.38824
実際の	-9.38832
prefix	-9.38868
output	-9.38906
▁ZIP	-9.38939
'>	-9.38976
の状態	-9.39029
▁async	-9.39126
lines	-9.39136
何	-9.39199
ve	-9.39206
戻り値は	-9.39287
7,	-9.39314
読み出し	-9.39395
振る舞い	-9.39548
文字の	-9.39578
アーカイブ	-9.39581
通常は	-9.3966
▁e	-9.39734
方法で	-9.39827
関数を	-9.39842
59	-9.39872
▁現在の	-9.39925
置換	-9.39956
uid	-9.40025
ごとに	-9.40152
実際に	-9.40183
月	-9.40255
パーザ	-9.40259
▁instead	-9.40261
下層の	-9.40261
接頭辞	-9.40261
複素数	-9.40261
継承	-9.40286
15	-9.40464
を使います	-9.40518
msg	-9.40536
▁lock	-9.40566
input	-9.4058
るようになりました	-9.40902
▁match	-9.41034
▁Add	-9.41279
▁callable	-9.41317
形式の	-9.41483
以下のように	-9.41496
100	-9.41498
以下	-9.41527
":	-9.41565
プロセスの	-9.41618
▁point	-9.4166
解釈	-9.41662
hook	-9.41856
右	-9.41861
プロパティ	-9.41873
ブラウザ	-9.41873
カラム	-9.41874
stmt	-9.41874
画像	-9.41874
単純な	-9.41923
不正な	-9.41964
▁ビット	-9.4219
exit	-9.42209
で返します	-9.42219
ても	-9.42247
メンバー	-9.42354
utf	-9.42367
従って	-9.42402
見	-9.42552
zip	-9.42601
お	-9.42677
いた	-9.42709
▁character	-9.42773
だ	-9.42854
▁conn	-9.42882
▁SSLSocket	-9.43037
▁ソケット	-9.43069
例外は	-9.43086
をサポートし	-9.43103
03	-9.43134
内容	-9.43181
有効な	-9.43384
▁empty	-9.43444
cache	-9.43467
む	-9.43506
▁al	-9.43755
▁のように	-9.43825
▁>=	-9.4386
▁12	-9.43942
呼び出す	-9.44048
ip	-9.44108
▁使用例	-9.44162
べきです	-9.44285
を行います	-9.44303
コンテキストマネージャ	-9.44322
▁1.0	-9.44332
定義されている	-9.44397
返す	-9.44467
▁config	-9.44528
▁UUID	-9.44555
▁world	-9.44693
fields	-9.44746
辞書の	-9.44751
もあります	-9.44806
req	-9.4481
tag	-9.449
▁NaN	-9.44967
low	-9.4501
を生成します	-9.45113
ユーザ	-9.45127
SOCK	-9.45182
古い	-9.45186
パーサー	-9.45192
読み	-9.45202
RED	-9.45234
import	-9.45277
更新	-9.4537
▁parent	-9.45385
▁ライブラリ	-9.4542
|	-9.45444
▁PureWindowsPath	-9.45533
etc	-9.4562
引数の	-9.45667
基底クラス	-9.45691
に加えて	-9.45753
処理を	-9.45816
返された	-9.45824
update	-9.45836
80	-9.45934
外部	-9.45953
remove	-9.45975
▁が返す	-9.46031
読み書き	-9.46064
以外の	-9.46092
test	-9.46115
de	-9.46215
▁library	-9.46234
形	-9.46236
▁usage	-9.46521
逆	-9.46583
でのみ	-9.46625
形式で	-9.46731
('-	-9.46733
良い	-9.46749
の一部	-9.46764
テーブル	-9.46802
ク	-9.46846
差	-9.46859
論	-9.4687
device	-9.46879
利用できます	-9.46893
▁newline	-9.46898
いて	-9.46928
(0)	-9.47052
を参照	-9.47274
9,	-9.47342
SS	-9.47435
の数	-9.47436
02	-9.47523
pid	-9.47539
長	-9.47559
▁'\	-9.47635
stderr	-9.47807
base	-9.47841
row	-9.47886
▁もし	-9.47903
256	-9.48097
ファイルシステム	-9.48296
▁month	-9.48416
0.0	-9.48449
認識	-9.48586
アクション	-9.48599
▁KeyError	-9.486
▁under	-9.48601
▁length	-9.48651
▁g	-9.48705
=1)	-9.4878
▁4,	-9.48785
▁source	-9.48954
▁DST	-9.4907
キーワード	-9.49204
▁なら	-9.49214
書式化	-9.49297
の情報	-9.49304
に含まれる	-9.49456
が使われます	-9.49562
callback	-9.49703
のリストを返します	-9.49733
tzinfo	-9.49744
pickle	-9.49806
このクラス	-9.49844
ログ	-9.49987
大	-9.50008
▁files	-9.50051
'、'	-9.50163
▁U	-9.50224
▁strict	-9.50258
▁so	-9.50281
注	-9.50334
▁iter	-9.50337
▁represent	-9.50337
合	-9.50341
正しく	-9.50353
ElementTree	-9.50353
▁memoryview	-9.5036
▁show	-9.50366
▁で非推奨	-9.50388
ことです	-9.50398
メソッドの	-9.5043
は無視されます	-9.50491
▁how	-9.50578
▁select	-9.50618
▁[1,	-9.50657
cert	-9.50917
▁attr	-9.50922
05	-9.51162
store	-9.51241
ようになります	-9.51258
cmd	-9.51261
@	-9.51261
pack	-9.51279
OP	-9.51282
方が	-9.51287
▁RuntimeError	-9.51319
▁警告	-9.51322
そうでない場合	-9.51329
▁コマンド	-9.5133
ソート	-9.51332
を直接	-9.51332
▁演算子	-9.51393
オブジェクトです	-9.51519
UTF	-9.51625
存在しない	-9.5167
IF	-9.51695
利用可能な	-9.51875
知	-9.51915
▁zero	-9.52067
法	-9.52076
ca	-9.52086
▁PurePath	-9.52139
タイムゾーン	-9.52139
弱参照	-9.52143
um	-9.5223
_*	-9.5224
getitem	-9.52346
初期化	-9.5253
文字を	-9.52592
サブ	-9.52622
▁UTF	-9.52655
▁PurePosixPath	-9.52668
そのような	-9.52681
渡された	-9.52788
▁SQLite	-9.52819
使える	-9.53126
▁break	-9.53128
items	-9.53142
先頭の	-9.53162
便利です	-9.53168
コマンドライン	-9.533
Not	-9.53392
対象	-9.5352
source	-9.53536
status	-9.53556
▁send	-9.53559
▁j	-9.53564
▁remove	-9.53572
▁access	-9.53579
利用できる	-9.5358
expression	-9.53598
gid	-9.53608
▁CGI	-9.53731
▁finally	-9.53732
入	-9.53743
に対し	-9.53763
link	-9.53775
テスト	-9.53828
▁Element	-9.53867
ページ	-9.53944
明	-9.53944
量	-9.53956
history	-9.53957
この値は	-9.54147
var	-9.54201
を使用して	-9.54207
86	-9.54311
方向	-9.5441
インスタンス化	-9.54489
は通常	-9.54497
を返し	-9.54573
ment	-9.54586
▁を使用して	-9.54598
▁w	-9.54599
▁codecs	-9.54601
signed	-9.5461
▁与えられた	-9.54655
無視	-9.54663
US	-9.54668
sum	-9.54716
▁pack	-9.54793
▁json	-9.54805
hi	-9.54857
flag	-9.54952
だけです	-9.55097
を扱う	-9.55136
実行される	-9.55151
フレーム	-9.55154
▁q	-9.55193
のに	-9.55283
▁オブジェクトを	-9.55302
▁up	-9.55311
シンボリックリンク	-9.55332
っ	-9.55358
っている	-9.55443
順	-9.55487
▁contain	-9.55506
Exception	-9.55514
を使った	-9.55537
▁client	-9.55542
root	-9.55598
memory	-9.556
number	-9.55609
インデント	-9.55613
デ	-9.55734
簡単に	-9.55806
▁tarfile	-9.55808
▁before	-9.55809
▁information	-9.55809
したがって	-9.55809
▁entry	-9.5581
基本的な	-9.55825
lake	-9.5583
▁sorted	-9.55893
▁dbm	-9.55898
prog	-9.55963
ヘッダー	-9.55976
▁O	-9.55987
名前は	-9.55994
きます	-9.56007
▁Color	-9.56042
組み込み関数	-9.56153
▁python	-9.56194
8,	-9.562
ており	-9.5631
パス名	-9.56385
▁callback	-9.5651
イ	-9.56555
▁methods	-9.56584
アンパック	-9.566
blocking	-9.56625
▁形式の	-9.5663
固有の	-9.5663
間の	-9.56867
そのまま	-9.5689
を使用します	-9.56946
モジュールが	-9.56948
構造	-9.57009
オペレーティングシステム	-9.57099
文字列を返します	-9.571
▁&	-9.57127
許可	-9.57154
ul	-9.57219
▁2)	-9.57289
▁iso	-9.5729
▁%(	-9.57347
実装は	-9.57391
それを	-9.57477
それらの	-9.57553
▁引数が	-9.57575
になり	-9.57598
したい	-9.57608
ol	-9.57638
__,	-9.57641
この関数	-9.57673
一致	-9.57682
待機	-9.57695
スタイル	-9.57696
報告	-9.57696
▁each	-9.57708
まだ	-9.5771
文字が	-9.57786
▁statement	-9.57787
その他	-9.5784
▁group	-9.57908
使用されます	-9.57919
▁column	-9.57938
のいずれか	-9.57955
▁state	-9.57965
▁ArgumentParser	-9.57993
▁メソッドが	-9.57997
23	-9.58001
▁codec	-9.5808
分割	-9.58176
文字列リテラル	-9.58195
についての	-9.58269
小文字	-9.58406
ハッシュ	-9.58473
types	-9.5852
(['	-9.58524
次に	-9.58578
▁keys	-9.58694
▁its	-9.58773
のサイズ	-9.58798
アルゴリズム	-9.58895
▁[-	-9.58931
(2)	-9.58941
書	-9.58986
データが	-9.59032
ot	-9.59033
dll	-9.59118
▁num	-9.59175
▁シーケンス	-9.59205
utc	-9.59207
度	-9.59242
子プロセス	-9.59302
print	-9.59596
タ	-9.5961
junk	-9.59613
互換性	-9.59614
PIPE	-9.59615
fill	-9.59616
当	-9.59618
止	-9.59618
端末	-9.59618
▁ACS	-9.59619
▁configparser	-9.5963
便利な	-9.59634
▁target	-9.59638
特殊な	-9.59665
Element	-9.59713
array	-9.5972
オープン	-9.59744
起動	-9.59756
▁圧縮	-9.59767
target	-9.59809
こともあります	-9.59878
25	-9.59971
▁your	-9.60039
モジュールを	-9.60157
aware	-9.60166
send	-9.60272
▁we	-9.60297
▁つ	-9.60424
85	-9.60678
▁shutil	-9.6068
のシーケンス	-9.60688
完了	-9.60778
▁exec	-9.60837
▁を返し	-9.6106
結合	-9.6108
取	-9.61184
▁Re	-9.61198
の末尾	-9.61246
▁url	-9.61325
ロギング	-9.61435
ツリー	-9.61513
オフセット	-9.61539
ない限り	-9.61555
公開	-9.61562
アンダースコア	-9.61579
日付	-9.6159
▁xmlparser	-9.61627
SMTP	-9.61652
queue	-9.61727
bind	-9.61747
suffix	-9.61773
(1,	-9.61777
Path	-9.61861
行われます	-9.61867
の実行	-9.61875
kw	-9.62033
レコード	-9.62033
SSLv	-9.62042
こともできます	-9.62064
ge	-9.62091
以下のような	-9.62323
ave	-9.62557
flags	-9.62562
を与える	-9.62655
ウィジェットの	-9.62746
詳細	-9.62778
▁文は	-9.62966
)"	-9.63027
▁WSGI	-9.63114
▁auto	-9.63165
iso	-9.63212
を設定する	-9.63254
▁custom	-9.63302
13	-9.63338
するのに	-9.63357
▁items	-9.63451
cmp	-9.63501
▁を返す	-9.63552
56	-9.63554
ターゲット	-9.63573
パイプ	-9.63575
正確に	-9.63579
▁URI	-9.63579
CookiePolicy	-9.63579
DEFAULT	-9.63579
インターフェイス	-9.6358
▁constructor	-9.6358
正しい	-9.63586
34	-9.63661
個々の	-9.63668
なお	-9.63685
AR	-9.63794
futures	-9.63931
名前が	-9.63936
際	-9.63947
▁fp	-9.64007
raw	-9.64021
prec	-9.64048
env	-9.64093
▁関数は	-9.64205
AF	-9.64211
る場合	-9.64229
は以下の	-9.64253
day	-9.6428
▁cp	-9.6432
pos	-9.64337
'))	-9.64355
ff	-9.64377
えます	-9.64404
特別な	-9.64417
keys	-9.6443
関数定義	-9.64495
ec	-9.64499
の値を	-9.64552
▁個の	-9.64573
コールバック	-9.64607
ば	-9.6468
がある場合	-9.64684
を使い	-9.64783
▁accept	-9.64818
ないので	-9.64823
attr	-9.64891
のバージョン	-9.64921
できるように	-9.64973
自身	-9.65058
の文字列	-9.65074
▁iterator	-9.65202
▁supported	-9.65266
設定します	-9.65347
▁map	-9.65391
無	-9.65424
▁they	-9.65498
あり	-9.65525
を渡す	-9.65584
事	-9.65606
成	-9.65611
チャンク	-9.65621
リソース	-9.65637
▁request	-9.65667
インストール	-9.65713
17	-9.65723
として使われます	-9.65723
例外の	-9.65837
temp	-9.65851
▁の呼び出し	-9.65855
▁Request	-9.65863
に変換されます	-9.65878
一部の	-9.65918
some	-9.66249
OS	-9.66282
30	-9.66378
ユーザが	-9.66426
対応	-9.66523
システムの	-9.66586
の実装	-9.66968
後で	-9.66969
文字は	-9.67086
▁MIME	-9.67097
生成されます	-9.67115
0.5	-9.6715
桁	-9.67152
文字列で	-9.67155
▁cursor	-9.67273
メッセージの	-9.67334
▁prefix	-9.67365
ことを意味します	-9.67481
rate	-9.67508
▁ストリーム	-9.67597
Value	-9.67628
インタープリタ	-9.67659
▁attributes	-9.67661
ではない	-9.67663
手	-9.67664
パラメタ	-9.67665
バ	-9.67686
アイテム	-9.67699
ローダー	-9.67703
GREEN	-9.67703
Infinity	-9.67703
FILE	-9.67704
▁See	-9.67704
文法	-9.67733
IS	-9.67829
sock	-9.67866
の作成	-9.67931
pro	-9.68022
のメソッド	-9.68043
インデクス	-9.68087
ize	-9.68092
J	-9.68099
▁nargs	-9.68106
させ	-9.68179
▁platform	-9.68193
メッセージを	-9.68197
days	-9.68201
ref	-9.683
LE	-9.68404
select	-9.6843
gz	-9.68445
年	-9.68446
クラスが	-9.68454
of	-9.6848
▁コンストラクタ	-9.68484
config	-9.68506
File	-9.68561
番目の	-9.68566
▁characters	-9.68569
datetime	-9.68608
▁provide	-9.6862
を定義する	-9.68643
ファイルに	-9.68687
▁32	-9.68693
▁SAX	-9.68717
▁例外	-9.68842
▁command	-9.68859
以下に	-9.68871
Time	-9.68956
[:	-9.68982
▁文の	-9.68996
call	-9.6905
▁future	-9.69093
ore	-9.69247
コンパイル	-9.6931
ive	-9.69402
クラス定義	-9.69447
18	-9.69458
▁false	-9.69572
▁パッケージ	-9.69602
sep	-9.69633
▁(?	-9.69747
▁functions	-9.69758
アレイ	-9.69831
est	-9.69844
非常に	-9.69914
for	-9.69937
/1.1	-9.70006
▁Use	-9.70007
strip	-9.70011
になっています	-9.7011
getattr	-9.70118
にします	-9.70156
済み	-9.70187
65	-9.70236
ma	-9.70375
ていない	-9.70385
▁binary	-9.70469
と等価です	-9.70616
のタプル	-9.70719
mi	-9.70801
コードは	-9.70862
Cookie	-9.70964
るか	-9.71024
inf	-9.71025
EX	-9.71034
種類の	-9.71102
dst	-9.71153
以上	-9.71158
side	-9.71263
ess	-9.7139
▁second	-9.71449
方法は	-9.71485
の設定	-9.71501
)]	-9.71608
インタプリタ	-9.71665
浮動小数点	-9.71771
▁join	-9.71841
サポートされている	-9.71855
ホスト	-9.71871
返されます	-9.71887
▁'/	-9.71938
に依存します	-9.71998
定義されています	-9.71998
between	-9.72005
OUND	-9.72005
▁specify	-9.72006
等しい	-9.72012
expand	-9.72028
RFC	-9.7203
values	-9.7207
▁mmap	-9.72077
▁numbers	-9.72128
で定義されている	-9.72163
▁bar	-9.72169
▁を参照	-9.72219
table	-9.72299
列挙型	-9.72412
結果が	-9.72439
▁test	-9.72447
終端	-9.72459
とともに	-9.72522
▁record	-9.72548
定義された	-9.72565
▁Node	-9.72659
▁descriptor	-9.72722
▁4)	-9.72859
▁stop	-9.72861
返り値は	-9.72916
No	-9.72989
▁reader	-9.72992
▁stderr	-9.73014
▁TarInfo	-9.73023
▁assert	-9.73027
▁意味	-9.73058
スレッドが	-9.73068
保持	-9.73122
ity	-9.73315
process	-9.73325
などの	-9.73483
▁3)	-9.73485
インスタンスの	-9.73549
時には	-9.73556
ST	-9.73606
もので	-9.73639
src	-9.73698
負の	-9.73742
移動	-9.73758
domain	-9.73778
▁を呼び出します	-9.73828
▁1)	-9.73879
ッ	-9.73881
"""	-9.74081
生	-9.74123
ies	-9.74125
なる	-9.74125
メンバ	-9.74185
表記	-9.742
に渡す	-9.74204
fmt	-9.74212
配	-9.74215
ック	-9.74216
ヒープ	-9.74224
ジ	-9.74227
解放	-9.74227
デコレータ	-9.74227
SIZE	-9.74227
少なくとも	-9.74227
試み	-9.74229
フック	-9.74232
ドメイン	-9.74234
▁found	-9.7426
拡張子	-9.74268
数の	-9.74278
▁pattern	-9.74329
を取得します	-9.74335
▁password	-9.74408
ください	-9.74454
usr	-9.74471
▁の場合は	-9.74486
chr	-9.74526
▁が返されます	-9.74549
としても	-9.74582
はその	-9.74585
をサポートします	-9.74585
されました	-9.74658
▁man	-9.74678
▁implementation	-9.74712
▁manager	-9.74767
▁を使う	-9.74886
▁src	-9.75106
▁convert	-9.75117
の意味	-9.75188
呼び出される	-9.75209
▁stdout	-9.75227
def	-9.75308
可能です	-9.75443
fragment	-9.75572
ている場合	-9.75624
signal	-9.75639
pool	-9.75654
POSIX	-9.7566
node	-9.75684
実行されます	-9.75696
Server	-9.75772
があれば	-9.75923
内容を	-9.75992
▁standard	-9.76032
格納	-9.76072
クラスは	-9.76116
上記の	-9.76122
▁アーカイブ	-9.76144
オブジェクトには	-9.76155
回	-9.76181
▁initial	-9.76218
値に	-9.7627
付	-9.76307
オーディオ	-9.76354
解説	-9.76418
端	-9.76486
タグ	-9.76487
リンク	-9.76488
パスワード	-9.76499
訳	-9.765
ドット	-9.765
埋め	-9.76502
▁wsgiref	-9.76503
変化	-9.76504
▁interface	-9.76507
Text	-9.76552
lower	-9.7657
シーケンスの	-9.76618
▁release	-9.76624
ホスト名	-9.76635
シーケンス型	-9.7666
OK	-9.76692
▁あるいは	-9.76709
__.	-9.76839
setup	-9.76864
アプリケーションの	-9.76892
ual	-9.76909
▁のサブクラスです	-9.76996
del	-9.77027
の使用	-9.77138
バイト文字列	-9.77153
header	-9.77462
とする	-9.77469
imag	-9.775
全	-9.77504
wait	-9.77634
使用する	-9.77699
マネージャー	-9.77701
最小の	-9.77711
を実行する	-9.77733
▁PosixPath	-9.7776
▁description	-9.77766
age	-9.77768
解決	-9.77808
複数	-9.77816
使えます	-9.77827
げ	-9.77847
▁No	-9.77848
そ	-9.77888
db	-9.77941
コマンドライン引数	-9.77982
▁zip	-9.7804
秒	-9.78046
関数です	-9.78081
エラーハンドラ	-9.78082
cause	-9.781
▁を使ってください	-9.78137
▁host	-9.78153
cookie	-9.78164
バイナリデータ	-9.78178
▁クラスの	-9.7821
を定義しています	-9.78282
//	-9.78387
▁モード	-9.78487
▁index	-9.78511
このモジュールの	-9.78531
を表示します	-9.78544
せず	-9.78572
元	-9.78631
に基づいて	-9.78632
外	-9.78711
に従って	-9.78711
々	-9.78718
▁に設定し	-9.78718
▁generator	-9.78743
するため	-9.78757
対象の	-9.78768
▁進	-9.78771
本	-9.78818
アルファベット	-9.78818
セキュリティ	-9.78826
カーソル	-9.78826
▁audioop	-9.78826
チャネル	-9.78826
本体	-9.78829
▁parameters	-9.78831
▁という名前の	-9.7884
term	-9.78849
List	-9.7886
etree	-9.78863
生成された	-9.78894
まれ	-9.78901
[1]	-9.78913
▁!=	-9.78942
07	-9.78987
データは	-9.7902
を利用する	-9.79075
だった場合	-9.79117
▁shell	-9.79132
に対しては	-9.79145
構成	-9.79152
IO	-9.7918
▁オプションの	-9.79182
▁created	-9.79364
一方	-9.7937
pathlib	-9.79371
ce	-9.79625
属性名	-9.79716
▁ignore	-9.79734
それらは	-9.79745
nan	-9.79747
送出されます	-9.79757
値です	-9.79777
▁42	-9.79901
標準的な	-9.79953
▁identifier	-9.7997
▁exc	-9.79987
isinstance	-9.80045
▁year	-9.80061
するように	-9.80103
▁connection	-9.8014
を使うと	-9.80184
▁task	-9.80225
っています	-9.80286
left	-9.80346
async	-9.80375
app	-9.80453
決定	-9.80457
タプルの	-9.80534
am	-9.8054
返	-9.80573
実際には	-9.80622
mul	-9.80674
▁email	-9.80725
Thi	-9.80732
せずに	-9.80741
random	-9.80775
DE	-9.80858
▁mailbox	-9.80924
残	-9.81007
(3)	-9.81064
呼び出され	-9.81121
▁Queue	-9.81124
リセット	-9.81145
▁ディレクトリ	-9.81159
box	-9.81163
なければならない	-9.81171
第	-9.81179
が存在し	-9.81182
▁single	-9.81184
▁である	-9.81187
コネクション	-9.81206
効果	-9.81206
ハンドル	-9.81206
▁different	-9.81207
一般に	-9.81207
compile	-9.81207
fetch	-9.81207
独自の	-9.81208
FORMAT	-9.81209
▁variable	-9.81209
both	-9.81209
▁where	-9.8122
SIG	-9.81231
▁723	-9.81244
が使用されます	-9.8125
▁関数の	-9.81312
プロセスが	-9.81333
99	-9.81338
pi	-9.81383
▁names	-9.81389
seq	-9.81408
に使われる	-9.81418
返り値	-9.81418
表示されます	-9.81457
▁De	-9.81548
あります	-9.81563
▁Connection	-9.81565
その後	-9.81876
▁属性は	-9.81901
を持っている	-9.81909
▁メソッドを	-9.81914
▁filter	-9.81948
88	-9.81948
リストは	-9.81951
ways	-9.81959
36	-9.82042
目	-9.82178
ll	-9.82183
インスタンスを返します	-9.8223
エラーコード	-9.82333
限り	-9.82394
があり	-9.82649
byte	-9.82656
受け	-9.82669
現	-9.8268
▁による	-9.82775
整数の	-9.82845
▁calls	-9.82899
このような	-9.82914
▁complex	-9.82944
▁arg	-9.82948
ベース	-9.83023
record	-9.83039
名前の	-9.8307
▁namespace	-9.83156
ラップ	-9.83169
にマッチします	-9.83195
▁zipfile	-9.83197
cur	-9.83219
spawn	-9.83269
指	-9.83292
を定義します	-9.83324
Color	-9.83338
なかった	-9.8335
check	-9.83355
parent	-9.83363
▁これらの	-9.8345
を削除します	-9.83466
IP	-9.83502
enter	-9.83559
名を	-9.83599
direct	-9.83623
ビュー	-9.83624
来	-9.83633
Proxy	-9.83635
INFO	-9.83643
Content	-9.83644
チュートリアル	-9.83645
From	-9.83646
¶	-9.83646
デバッグ	-9.83646
Mapping	-9.83646
どんな	-9.83646
を除き	-9.83646
メタクラス	-9.83646
修正	-9.83649
Mailbox	-9.83658
長い	-9.83674
country	-9.83677
理由	-9.83684
小数	-9.83692
を含みます	-9.83701
ど	-9.83727
区切り	-9.8374
プラットフォームでは	-9.83785
なります	-9.8384
指数	-9.83881
43	-9.83928
書き	-9.83948
使用できます	-9.83961
▁値	-9.83964
▁ではなく	-9.84033
ls	-9.84086
val	-9.8411
▁quote	-9.84244
▁このクラスは	-9.84252
▁進数	-9.8456
round	-9.8457
▁node	-9.84624
の振る舞い	-9.84753
=-1	-9.8477
▁over	-9.84879
▁Z	-9.8497
ur	-9.85145
アップ	-9.85166
bra	-9.85183
で使われる	-9.8521
は全て	-9.85286
▁引数に	-9.85286
co	-9.85303
▁CA	-9.85347
ありません	-9.85371
▁sep	-9.85377
▁オブジェクトが	-9.85466
続	-9.85467
names	-9.85467
▁log	-9.85542
▁day	-9.85617
▁も参照してください	-9.85683
fds	-9.8574
without	-9.8575
使うことができます	-9.85755
▁ファイルの	-9.85799
として返します	-9.85819
自体	-9.85856
ファイルから	-9.85874
これが	-9.85906
factory	-9.85976
wrap	-9.85981
48	-9.85985
pattern	-9.86031
これを	-9.86044
04	-9.86051
width	-9.86065
protocol	-9.86072
ASCII	-9.86081
未	-9.86117
インプレース	-9.86123
機構	-9.86127
基本	-9.86127
レスポンス	-9.8614
document	-9.86144
過	-9.86145
モデル	-9.86146
▁Note	-9.86157
▁Web	-9.8616
をもつ	-9.86192
▁キーワード引数	-9.86218
▁headers	-9.86238
▁flush	-9.86271
part	-9.86271
chars	-9.86273
▁スクリプト	-9.86297
integer	-9.86323
書式指定	-9.86371
▁を呼び出して	-9.86483
params	-9.86489
が必要です	-9.86496
▁global	-9.86549
54	-9.86632
後の	-9.86652
">	-9.86678
▁モジュールでは	-9.86688
属性が	-9.86775
▁supports	-9.86823
▁property	-9.86907
▁seconds	-9.87026
そうでない場合は	-9.87146
キーは	-9.87151
を用いて	-9.87156
の例	-9.87201
▁update	-9.87359
だけが	-9.87488
を加え	-9.87492
クラスです	-9.87495
\\	-9.87593
▁200	-9.87624
一度	-9.87637
環境設定	-9.87759
ソケットの	-9.87792
読	-9.87833
べき	-9.87885
連続	-9.8789
5]	-9.87903
行の	-9.87909
▁への	-9.87944
▁Default	-9.8796
▁feature	-9.8819
メソッドが	-9.88205
▁named	-9.88323
sample	-9.88343
引数で	-9.88356
無効	-9.88359
▁there	-9.8843
発	-9.88434
▁classmethod	-9.88444
リストに	-9.88475
化された	-9.88605
側	-9.88636
メソッドを	-9.88647
ないように	-9.88672
簡単な	-9.8869
互換	-9.88693
ツール	-9.88708
記憶	-9.88709
週	-9.88709
拠	-9.8871
rank	-9.8871
▁equal	-9.8871
厳密に	-9.8871
書式	-9.8871
クオート	-9.8871
コレクション	-9.8871
将来	-9.8871
▁gzip	-9.88729
verify	-9.88733
を追加します	-9.88739
されない	-9.88743
The	-9.88759
upper	-9.88761
演算は	-9.88761
PROTOCOL	-9.88766
▁["	-9.88769
再度	-9.88795
▁以下は	-9.88797
▁kwargs	-9.88819
▁abs	-9.88826
cap	-9.8883
decimal	-9.88845
errno	-9.88854
▁timezone	-9.88894
▁archive	-9.88902
pop	-9.8894
42	-9.88946
2]	-9.8896
2)	-9.88967
month	-9.89002
作成されます	-9.89012
▁sig	-9.89194
どう	-9.89266
▁ZipFile	-9.89269
▁より	-9.89384
1.2	-9.89449
(4)	-9.89715
判定	-9.89908
▁Base	-9.89916
▁super	-9.89916
▁POP	-9.89938
と同様に	-9.89941
このモジュールは	-9.90011
▁see	-9.90037
しました	-9.90133
▁に対する	-9.90173
const	-9.90184
派生クラス	-9.90223
エラーメッセージ	-9.90246
テキストモード	-9.90251
▁fileno	-9.90285
それ以外の	-9.90293
次	-9.90311
40	-9.90341
▁インスタンスは	-9.90422
▁sample	-9.90444
yes	-9.90447
▁を指定して	-9.90545
dt	-9.90575
える	-9.90614
▁An	-9.90619
たら	-9.90687
▁リクエスト	-9.90689
ていました	-9.90734
▁のサブクラスで	-9.90754
になった	-9.90791
カスタマイズ	-9.90812
の前に	-9.90848
ER	-9.90938
以外	-9.90994
rb	-9.91055
▁execute	-9.91132
その結果	-9.91243
▁^	-9.91256
ファクトリ	-9.91308
行う	-9.91316
ポート	-9.91323
つ目の	-9.91323
開く	-9.91337
ユーティリティ	-9.91341
build	-9.91341
handshake	-9.91341
▁shlex	-9.91341
▁would	-9.91341
script	-9.91341
safe	-9.91342
リファレンス	-9.91342
naive	-9.91343
buf	-9.91347
どこ	-9.91352
INET	-9.91352
RequestHandler	-9.91377
サブディレクトリ	-9.91389
すれば	-9.91417
▁weakref	-9.91469
mod	-9.91678
NaN	-9.9168
必要がある	-9.91683
result	-9.91697
ssl	-9.91731
引数に	-9.91752
上に	-9.918
▁times	-9.91825
エラーを	-9.91839
式の	-9.91871
DO	-9.91909
残りの	-9.91917
▁CPython	-9.91937
▁required	-9.91965
例外を	-9.9208
▁Document	-9.9213
▁section	-9.92139
▁calendar	-9.92147
のインスタンス	-9.92228
であるか	-9.92295
▁short	-9.92355
▁unique	-9.92355
までの	-9.92359
▁de	-9.92382
mu	-9.92489
指定します	-9.9257
▁Cookie	-9.92619
77	-9.92688
と同じです	-9.92738
▁table	-9.92764
関数に	-9.92773
プログラムの	-9.928
▁pos	-9.92837
io	-9.92843
に加え	-9.92902
たときに	-9.92935
2'	-9.92968
▁年	-9.93085
▁pid	-9.9316
の結果	-9.93169
を発生させます	-9.93246
バイトの	-9.93354
サブクラスで	-9.93405
試	-9.93405
▁removed	-9.93424
の定義	-9.93439
安全	-9.93548
送	-9.93591
▁page	-9.93623
ことになります	-9.93739
▁dest	-9.93759
以上の	-9.93784
ていた場合	-9.93805
ers	-9.93873
128	-9.93877
$	-9.93885
▁を送出する	-9.93907
群	-9.9393
pl	-9.93962
命令	-9.94003
フ	-9.94024
べ	-9.94026
OR	-9.94036
引用符	-9.94043
タスク	-9.94044
始め	-9.94044
積	-9.94044
home	-9.94044
セッション	-9.94044
必ず	-9.94044
パディング	-9.94046
▁binascii	-9.94046
ADV	-9.94052
▁existing	-9.94054
可能性があります	-9.94058
呼び出しは	-9.94114
扱います	-9.94169
75	-9.94179
の位置	-9.94183
▁defined	-9.94274
特殊	-9.9432
▁AU	-9.94339
IT	-9.94348
(5)	-9.94409
相対	-9.94414
せます	-9.94423
diff	-9.94491
maxsize	-9.94496
順に	-9.94504
recv	-9.94532
▁sum	-9.94539
06	-9.94566
cursor	-9.94608
53	-9.94613
▁Control	-9.94624
SSLContext	-9.94648
数値型	-9.94695
されて	-9.94707
すでに	-9.94753
Enum	-9.94754
ないこと	-9.94773
ne	-9.94785
すべきです	-9.94815
改行文字	-9.94829
UN	-9.94829
このメソッドが	-9.94929
▁pprint	-9.94941
パッケージの	-9.94987
▁における	-9.95111
▁word	-9.95138
ON	-9.95318
前の	-9.95331
受信	-9.95345
リストを	-9.95396
bits	-9.95404
ことはできません	-9.95432
を持たない	-9.95462
両方の	-9.95463
NS	-9.95489
考え	-9.95497
▁threads	-9.95556
▁LogRecord	-9.95563
▁定数	-9.95582
文字列に	-9.95736
28	-9.95804
使われ	-9.95848
▁な	-9.95873
1.1	-9.959
▁instances	-9.9596
この属性	-9.95986
▁form	-9.96001
▁ABC	-9.96028
▁need	-9.96052
89	-9.96077
したもの	-9.9613
名前を	-9.96141
とその	-9.96198
文字列が	-9.962
▁reference	-9.96275
自	-9.96317
▁インスタンスが	-9.96356
にあります	-9.96434
▁全ての	-9.96463
▁byte	-9.96551
EN	-9.96572
▁sock	-9.96578
レ	-9.96607
ことができ	-9.96645
▁("	-9.96663
多	-9.96717
記述子	-9.96723
▁AF	-9.96746
head	-9.96763
段	-9.96795
記録	-9.96815
chunk	-9.96819
Simple	-9.9682
package	-9.9682
audio	-9.96821
おそらく	-9.96821
大きな	-9.96821
デコーダ	-9.96821
コントロール	-9.96821
スイート	-9.96821
▁ZipInfo	-9.96822
combination	-9.96822
until	-9.96822
blue	-9.96822
カウント	-9.96822
▁otherwise	-9.96828
▁take	-9.9684
▁certificate	-9.96855
複数回	-9.96862
を作成し	-9.96866
ローカルな	-9.96885
▁wrap	-9.96887
END	-9.96891
▁//	-9.96898
▁database	-9.96923
インスタンスは	-9.9694
▁style	-9.96959
▁Message	-9.96987
UP	-9.97048
groups	-9.97054
に渡されます	-9.97089
▁デフォルトでは	-9.97097
ていない場合	-9.97126
発生した	-9.97134
▁[0,	-9.97147
レベルの	-9.97163
ので注意してください	-9.97187
▁IPv	-9.97204
▁uuid	-9.97223
ない場合は	-9.97229
insert	-9.97314
▁like	-9.97335
を変更	-9.97343
▁StopIteration	-9.97418
はすべて	-9.97466
▁digits	-9.9748
からなるタプル	-9.97494
tuple	-9.9752
構造体	-9.97568
へのアクセス	-9.97573
-2	-9.97575
個	-9.97604
生成します	-9.97624
two	-9.97655
▁Counter	-9.97655
&	-9.97669
Unicode	-9.97675
▁ttk	-9.97683
▁整数	-9.97705
ance	-9.97718
このメソッドを	-9.97745
トレースバック	-9.97745
いくつか	-9.97747
68	-9.9776
同様に	-9.97762
tab	-9.97777
▁comp	-9.97816
++	-9.97875
▁PROG	-9.97915
alt	-9.97986
のどちらか	-9.97987
▁sort	-9.98029
発生します	-9.98058
るので	-9.98099
fred	-9.98137
ach	-9.98141
を受け取ります	-9.98213
6.	-9.98214
▁normal	-9.98218
▁プロトコル	-9.98278
▁writer	-9.98282
すべき	-9.98298
共通の	-9.98504
を書く	-9.98548
の間に	-9.98574
▁の実装	-9.98593
▁lzma	-9.98612
uri	-9.98676
▁100	-9.98715
を利用して	-9.98835
時の	-9.98837
▁package	-9.98931
▁To	-9.98938
一般的に	-9.98951
に変換する	-9.98956
('0	-9.99002
08	-9.99019
▁operation	-9.99022
に設定され	-9.99024
(2,	-9.99051
les	-9.99052
timestamp	-9.99265
で定義された	-9.99295
ine	-9.99302
▁となります	-9.9933
限	-9.99334
▁interval	-9.99336
高	-9.99362
pp	-9.99416
ヘルプ	-9.99433
マニュアル	-9.99454
行を	-9.99539
時点で	-9.9955
slice	-9.99559
同	-9.99577
どちらの	-9.99584
用に	-9.99634
null	-9.99669
正確な	-9.99674
標準ライブラリ	-9.99678
through	-9.99679
版	-9.99679
検出	-9.99687
ければ	-9.99688
プ	-9.99703
elif	-9.99706
▁cmath	-9.99714
グローバルな	-9.99741
wrapper	-9.99752
数学	-9.99756
▁elements	-9.99775
を調べ	-9.99788
▁processes	-9.99796
コードブロック	-9.9982
▁Raw	-9.99835
するとき	-9.99843
▁このモジュールでは	-9.99878
▁であれば	-9.9989
任意	-9.99909
パスエントリ	-9.99944
置き換え	-9.99946
辞書です	-9.99981
=[	-10.0002
21	-10.0007
▁pre	-10.0011
ver	-10.0024
HH	-10.0034
終了します	-10.0035
(10)	-10.0036
んで	-10.0043
▁load	-10.0048
与え	-10.0052
末尾に	-10.0054
スレッドの	-10.0058
することもできます	-10.0065
49	-10.0069
55	-10.007
pow	-10.007
unpack	-10.0071
system	-10.0072
struct	-10.0074
▁拡張	-10.0076
library	-10.0077
になっている	-10.0079
二	-10.008
exec	-10.0082
モジュール名	-10.0084
にアクセスする	-10.0091
▁V	-10.0093
の場合は	-10.0102
動作します	-10.0106
結果を	-10.0107
を取り	-10.0115
▁13	-10.012
を取得する	-10.0136
70	-10.0138
▁oss	-10.0139
デフォルト値は	-10.0157
▁0)	-10.0167
▁color	-10.0177
単	-10.0178
する必要があります	-10.0181
らない	-10.0186
▁ISO	-10.019
dump	-10.0197
▁の型	-10.02
hour	-10.0206
▁で指定された	-10.0209
だけで	-10.0216
▁を使います	-10.0219
ルート	-10.0224
使われている	-10.0227
期	-10.0245
▁part	-10.0256
auth	-10.0258
ラ	-10.0259
曜日	-10.026
SET	-10.0261
角	-10.0262
BLUE	-10.0262
dialect	-10.0262
組	-10.0262
あらゆる	-10.0262
▁AttributeError	-10.0262
継承不可	-10.0262
▁positional	-10.0265
▁hashlib	-10.0265
全く	-10.0266
localhost	-10.0269
▁メールボックス	-10.027
▁30	-10.0273
である必要があります	-10.0273
▁例外が送出されます	-10.0277
hand	-10.0277
が必要	-10.0278
▁getcontext	-10.0279
▁rc	-10.0281
利用されます	-10.0287
argv	-10.0288
▁provided	-10.0293
MAX	-10.0299
追加された	-10.0301
='')	-10.0305
▁ei	-10.0306
自動	-10.031
element	-10.0329
▁よりも	-10.0336
▁秒	-10.0338
▁{}	-10.0342
▁フォーマット	-10.0344
▁filters	-10.0346
cookies	-10.0347
▁my	-10.0349
▁BLAKE	-10.035
▁uses	-10.0352
▁step	-10.0352
の説明	-10.0353
}'.	-10.0357
readline	-10.0363
に変換され	-10.0364
できない場合	-10.0368
行われ	-10.0377
reversed	-10.0379
▁式	-10.0379
操作は	-10.0389
do	-10.0391
の名前です	-10.0393
search	-10.0395
属性は	-10.0395
新たに	-10.0401
▁Telnet	-10.0401
といった	-10.0402
connection	-10.0402
operator	-10.0403
return	-10.0404
ince	-10.041
exp	-10.0412
例外が	-10.0414
オブジェクトで	-10.0417
を上書き	-10.0418
唯一の	-10.0421
使用します	-10.0423
なければならず	-10.0426
ext	-10.0426
▁itertools	-10.0427
block	-10.043
72	-10.0439
▁char	-10.0441
オブジェクトでなければなりません	-10.0468
IOBase	-10.0471
アクセスできます	-10.0472
52	-10.0474
can	-10.0486
によっては	-10.0486
▁control	-10.0503
されるか	-10.0506
らず	-10.0515
ブ	-10.0516
▁buffers	-10.0536
▁program	-10.0538
グローバル	-10.0541
▁round	-10.0543
削除し	-10.0545
これらの関数	-10.0547
ことはありません	-10.0548
負	-10.0548
limit	-10.0553
▁が追加されました	-10.0558
間で	-10.0558
dispatch	-10.0558
-3	-10.056
同期	-10.0562
三	-10.0563
ライ	-10.0563
なりません	-10.0564
weekday	-10.0564
view	-10.0564
乗	-10.0564
接	-10.0564
査	-10.0565
マ	-10.0565
Key	-10.0565
除算	-10.0565
マーク	-10.0565
壊	-10.0565
デスクリプタ	-10.0565
スクリーン	-10.0565
minidom	-10.0565
原	-10.0565
boolean	-10.0565
delimiter	-10.0565
典型的な	-10.0565
meta	-10.0565
かもしれない	-10.0565
易	-10.0565
▁aifc	-10.0565
▁concurrent	-10.0566
▁BaseHandler	-10.0567
▁produce	-10.0567
補間	-10.0568
▁Cmd	-10.0568
Re	-10.0569
重要な	-10.0569
▁options	-10.0572
▁tm	-10.0575
▁include	-10.058
hose	-10.0585
cancel	-10.0586
次のような	-10.0586
▁Call	-10.0589
式が	-10.0597
する方法	-10.0599
サブクラス化	-10.06
クラスのインスタンス	-10.0607
EST	-10.0622
better	-10.0624
","	-10.0624
▁multiple	-10.063
が無い場合	-10.0635
▁digest	-10.0638
ただ	-10.064
最大の	-10.0644
暗号化	-10.0652
https	-10.0655
依存	-10.066
るとき	-10.0671
コードを	-10.0672
はこの	-10.0673
このモジュール	-10.0693
閉じ	-10.0696
して返します	-10.0706
▁現在	-10.0711
quote	-10.0711
形式は	-10.0713
handle	-10.0714
▁ならば	-10.0717
▁min	-10.0719
生成される	-10.0722
**	-10.0727
sort	-10.073
identifier	-10.0731
▁indices	-10.0735
▁SQL	-10.0735
exc	-10.0735
▁1.3	-10.0739
に渡される	-10.0744
...)	-10.0745
▁が使われます	-10.0747
tz	-10.075
:%	-10.0757
▁H	-10.0759
▁application	-10.0761
top	-10.0763
modules	-10.0766
を表現する	-10.0766
辞書は	-10.0774
ian	-10.0781
基底クラスの	-10.0784
options	-10.0787
暗号	-10.0789
を指定し	-10.0797
▁シフト	-10.0803
していない	-10.081
次のように	-10.0815
似	-10.0818
進数	-10.0824
▁の両方	-10.0829
namespace	-10.0851
ight	-10.0854
を持って	-10.0854
でない場合	-10.0856
▁full	-10.086
▁large	-10.086
ex	-10.0861
▁テキスト	-10.0863
することは	-10.0863
高速	-10.0871
▁要素	-10.0875
移	-10.0877
上位	-10.0877
プロンプト	-10.0877
色	-10.0877
▁statistics	-10.0878
scheme	-10.0878
タイムスタンプ	-10.0878
Structure	-10.0878
継続	-10.0878
アノテーション	-10.0878
specific	-10.0878
を実装しています	-10.0879
ラッパー	-10.088
▁eval	-10.088
ING	-10.0882
decompress	-10.0882
Pickler	-10.0884
SHA	-10.0891
▁another	-10.0891
なかった場合	-10.0893
▁LOG	-10.0894
この属性は	-10.0896
known	-10.09
のドキュメント	-10.0901
を含め	-10.0903
▁pi	-10.0907
ということです	-10.091
▁By	-10.0915
FD	-10.0926
絶対	-10.0929
exists	-10.0939
dumps	-10.0948
▁closed	-10.0954
bound	-10.0954
37	-10.0955
言	-10.0958
その名前	-10.096
の一つ	-10.0963
▁デフォルトの	-10.0967
star	-10.0974
▁platforms	-10.0977
機能を	-10.0978
Ex	-10.098
▁文書	-10.098
ut	-10.0984
▁left	-10.099
式は	-10.099
多く	-10.0997
▁ウィジェットは	-10.0997
表示される	-10.0998
の値は	-10.1
▁indent	-10.1001
500	-10.1001
バージョンの	-10.1003
辞書を	-10.1005
エンコードされた	-10.101
▁を呼び出す	-10.1015
▁enum	-10.1031
mtime	-10.1038
▁Mac	-10.1042
ctime	-10.1044
Base	-10.1045
▁ドキュメント	-10.1049
▁TarFile	-10.1053
接続を	-10.1067
列挙	-10.1069
order	-10.1071
PROG	-10.1074
ready	-10.1075
short	-10.1077
Process	-10.1079
true	-10.108
の比較	-10.1082
URL	-10.1085
compress	-10.109
97	-10.1092
たもの	-10.1097
のインデックス	-10.1102
使います	-10.1106
+1	-10.1108
▁acquire	-10.1109
にとって	-10.111
}"	-10.1117
▁(1,	-10.1118
値として	-10.1119
発生	-10.112
▁Read	-10.1127
>'	-10.1129
▁Py	-10.1129
▁defaults	-10.113
ized	-10.1132
ru	-10.1135
▁common	-10.1136
▁zlib	-10.1137
put	-10.1138
桁の	-10.1138
▁J	-10.1139
と同じように	-10.1144
の集合	-10.1144
であること	-10.1145
▁insert	-10.1145
eg	-10.115
関数呼び出し	-10.115
be	-10.115
重	-10.1152
子要素	-10.1159
▁メソッドの	-10.1161
を受け取り	-10.1181
Attribute	-10.1195
順番	-10.1196
▁implement	-10.1199
理	-10.1199
util	-10.1199
オーバライド	-10.12
ましょう	-10.12
直列化	-10.12
Child	-10.12
丸括弧	-10.12
用途	-10.12
テ	-10.12
PORT	-10.12
urpose	-10.12
エンコーダ	-10.12
サービス	-10.12
優先度	-10.12
調整	-10.12
フォーマッタ	-10.12
を除く	-10.12
traceback	-10.12
を通して	-10.12
に対応します	-10.12
わけではありません	-10.12
token	-10.12
▁median	-10.1201
feed	-10.1201
コードポイント	-10.1202
loop	-10.1202
無視されます	-10.1203
のドキュメントを参照してください	-10.1204
こうした	-10.1206
▁インタフェース	-10.1207
Foo	-10.1208
▁assignment	-10.1209
▁CAN	-10.1212
実装されています	-10.1214
▁who	-10.1219
にマッチする	-10.1221
via	-10.1221
▁が発生します	-10.1225
unlink	-10.1226
エスケープシーケンス	-10.1232
▁cert	-10.1253
上書き	-10.1259
▁complete	-10.1264
関数オブジェクト	-10.1272
で使われている	-10.1278
ところ	-10.1279
空行	-10.1282
レベルで	-10.1289
▁content	-10.129
書式文字列	-10.1293
▁just	-10.13
ratio	-10.1314
が存在しない場合	-10.1317
▁display	-10.1319
▁fallback	-10.1325
TIME	-10.1327
▁contents	-10.1338
めます	-10.134
2',	-10.1342
与える	-10.1346
▁points	-10.1347
▁形式	-10.135
▁sign	-10.1355
ウィンドウの	-10.1361
kwds	-10.1375
▁といった	-10.1377
外部関数	-10.1379
▁Point	-10.1383
▁search	-10.1385
popen	-10.139
▁新しい	-10.1399
▁frozenset	-10.1409
をサポートしている	-10.1412
ことを示します	-10.1425
を追加する	-10.1428
▁mod	-10.1432
calendar	-10.1432
property	-10.1432
timedelta	-10.1438
DOM	-10.1443
argparse	-10.1446
▁のいずれか	-10.1446
▁21	-10.146
state	-10.1463
▁initializer	-10.1466
frame	-10.1467
Set	-10.1467
exist	-10.1467
終わり	-10.1468
要求された	-10.1475
あった	-10.1478
bz	-10.1479
min	-10.1484
に使われます	-10.1486
呼ばれ	-10.1489
を継承し	-10.1494
▁precision	-10.1494
1.0	-10.1496
基	-10.1499
45	-10.15
▁most	-10.15
関数と	-10.1502
使用例	-10.1503
がありません	-10.1521
50	-10.1522
▁u	-10.1522
定数は	-10.1523
名前付き	-10.1524
検	-10.1525
決	-10.1525
プログラムが	-10.1526
LOCK	-10.1527
RPC	-10.1529
指定できます	-10.1531
相	-10.1532
記法	-10.1533
代	-10.1533
active	-10.1533
メール	-10.1533
平均	-10.1533
Level	-10.1533
プレースホルダ	-10.1533
Parse	-10.1533
を設定し	-10.1533
明示的な	-10.1533
▁OverflowError	-10.1533
無限	-10.1533
履歴	-10.1533
標準出力	-10.1533
cookiejar	-10.1533
フォルダ	-10.1533
に関して	-10.1534
BOM	-10.1534
可変	-10.1534
ひとつ	-10.1534
cfg	-10.1534
を指す	-10.1534
理解	-10.1534
識別	-10.1534
一意	-10.1536
共有ライブラリ	-10.1537
てしまう	-10.1538
▁were	-10.1538
ランダムな	-10.1539
HAS	-10.1541
▁old	-10.1542
する場合	-10.1547
shm	-10.1549
評価されます	-10.155
を与えます	-10.1551
バイナリモード	-10.1556
ak	-10.1556
める	-10.1558
▁My	-10.1559
を処理する	-10.1561
('\	-10.1563
の後ろに	-10.1568
seek	-10.157
▁minute	-10.1572
▁に対して	-10.1575
辞書のキー	-10.1579
▁co	-10.158
るために	-10.1581
重複	-10.1582
▁right	-10.1583
もう	-10.1584
利用可能です	-10.1584
終了コード	-10.1585
エラーは	-10.1597
▁three	-10.161
▁locale	-10.1612
別名	-10.1613
モードでは	-10.1621
▁属性が	-10.1623
ハッシュ可能	-10.1625
▁subclass	-10.1626
apple	-10.1627
コードが	-10.1628
▁repeat	-10.1634
81	-10.1634
▁strptime	-10.1637
▁mapping	-10.1637
非同期ジェネレータ	-10.1639
▁メソッドで	-10.164
1:	-10.1648
呼び出された	-10.165
▁を使用してください	-10.1652
書き込み可能	-10.1654
ally	-10.1672
'''	-10.1672
▁の別名	-10.1677
の先頭	-10.1683
以前の	-10.1683
11,	-10.1684
▁integers	-10.1685
の組み合わせ	-10.1691
保証	-10.1697
▁'--	-10.17
メソッドがあります	-10.1702
▁pow	-10.1706
の順序	-10.1706
▁opener	-10.1711
▁extra	-10.1721
でなくてはなりません	-10.1722
▁register	-10.1726
▁フィールド	-10.1727
eb	-10.1735
使用される	-10.1752
▁continue	-10.1753
第一引数	-10.1757
▁reverse	-10.1763
何か	-10.1767
への参照	-10.1772
見つか	-10.178
▁メンバー	-10.1781
が指定され	-10.1785
(200	-10.1786
の後に	-10.1794
オプションで	-10.1795
first	-10.1797
three	-10.18
追加されます	-10.1807
基底	-10.181
▁インスタンスの	-10.1815
▁などの	-10.1817
tra	-10.1818
のすべての	-10.182
の最初の	-10.1822
普通	-10.1829
配列の	-10.1831
を指定できます	-10.1832
▁プログラム	-10.1851
▁説明	-10.1855
reader	-10.1862
とします	-10.1863
none	-10.1864
区切り文字	-10.1866
ことに	-10.1866
意	-10.1873
Class	-10.1874
倍	-10.1877
要	-10.1878
和	-10.1878
離	-10.1878
アプローチ	-10.1878
フォーム	-10.1878
パネル	-10.1878
Shape	-10.1878
TextIOWrapper	-10.1878
body	-10.1878
eroDivisionError	-10.1878
▁deprecated	-10.1878
▁previous	-10.1878
剰余	-10.1878
マッチング	-10.1878
what	-10.1878
ダイジェスト	-10.1878
▁here	-10.1878
passwd	-10.1879
短い	-10.1881
に追加します	-10.1881
about	-10.1882
▁節を参照してください	-10.1883
バイト列オブジェクト	-10.1885
子ノード	-10.1886
alive	-10.1887
▁listen	-10.1889
オーバーライド	-10.1891
▁enabled	-10.1894
れます	-10.1896
あって	-10.1907
▁position	-10.1911
FileHandler	-10.1914
CH	-10.1915
要素に	-10.1918
▁newer	-10.1918
▁Context	-10.1926
関連付け	-10.1927
▁''	-10.1934
li	-10.1935
はいけません	-10.194
整数で	-10.194
メッセージが	-10.194
のデータ	-10.194
の両方	-10.1941
その値	-10.1941
クラスで	-10.1945
-----	-10.1956
76	-10.1957
に対応付け	-10.1958
このクラスは	-10.1959
マップ型	-10.1964
▁ここで	-10.1969
keywords	-10.1972
ZIP	-10.1973
ときには	-10.1977
▁cause	-10.1991
の中に	-10.1993
123	-10.1994
▁tz	-10.1997
算術演算	-10.2
設定された	-10.2016
数を返します	-10.2021
ためです	-10.2021
000000	-10.2024
アプリケーションは	-10.2024
しい	-10.2031
see	-10.2033
例外を送出する	-10.2035
クラスインスタンス	-10.2037
適切に	-10.205
るように	-10.2051
適切	-10.2054
▁言語	-10.2054
カスタム	-10.2061
たとき	-10.2063
となり	-10.2069
nbytes	-10.208
呼び出しが	-10.208
キューに	-10.208
notation	-10.2086
状況	-10.2088
!'	-10.2094
を使うことができます	-10.2097
一番	-10.2101
▁numeric	-10.2103
▁connect	-10.2103
利用可能	-10.2105
クラスメソッド	-10.2108
するときに	-10.2109
option	-10.2131
異なります	-10.2133
▁partial	-10.2133
-1,	-10.2134
▁results	-10.2137
▁Files	-10.2137
▁Do	-10.2143
ことができる	-10.2154
イベントを	-10.2159
35	-10.2161
sign	-10.2163
▁family	-10.2163
▁formatter	-10.2164
クエリ	-10.217
行は	-10.217
ジェネレータ関数	-10.2171
ry	-10.2171
strftime	-10.2182
ラベル	-10.2183
▁work	-10.2187
派生	-10.2187
▁exp	-10.2189
IPv	-10.2193
▁them	-10.2194
存在します	-10.2197
論理	-10.2199
メッセージは	-10.22
right	-10.2202
書く	-10.2204
▁fun	-10.2204
▁back	-10.2205
archive	-10.2209
を持ち	-10.2211
IL	-10.2214
ほとんど	-10.2215
読み込まれ	-10.2216
▁encode	-10.2219
自身の	-10.222
するの	-10.2222
ケース	-10.2226
ロケール	-10.2226
▁PROTOCOL	-10.2228
効率	-10.223
こう	-10.2232
十分	-10.2232
強	-10.2233
述	-10.2233
設計	-10.2233
パ	-10.2233
消	-10.2235
イテレート	-10.2235
スキーム	-10.2235
編集	-10.2235
ブール値	-10.2235
FILTER	-10.2235
Protocol	-10.2235
coroutine	-10.2235
missing	-10.2235
複雑な	-10.2235
▁XMLReader	-10.2235
▁Token	-10.2235
プログラマ	-10.2235
インクリメンタル	-10.2235
転送	-10.2235
記号	-10.2236
Box	-10.2236
連結	-10.2236
posix	-10.2236
sched	-10.2236
んだ	-10.2236
▁POINTER	-10.2236
被演算子	-10.2236
セル	-10.2236
はずです	-10.2236
必要に応じて	-10.2236
▁equivalent	-10.2236
big	-10.2237
ポート番号	-10.2237
PRIO	-10.2238
差分	-10.2239
79	-10.2239
▁(0	-10.224
おり	-10.224
両方とも	-10.2241
▁インタプリタ	-10.2243
▁例外を送出します	-10.2244
とみなされます	-10.2244
無効な	-10.2245
▁poll	-10.2245
例外を送出します	-10.2246
それ以外の場合には	-10.2247
▁stdin	-10.2251
を利用します	-10.2251
▁changed	-10.2252
ソースコード	-10.2253
グローバル変数	-10.2255
バッファー	-10.2255
loader	-10.2264
▁データ型を表し	-10.2264
されている場合	-10.2269
が定義され	-10.2271
digits	-10.2273
reduce	-10.2273
libc	-10.2274
開かれ	-10.2282
マシン	-10.2285
オプションは	-10.2285
▁アプリケーション	-10.2289
たい	-10.2297
ather	-10.2297
loads	-10.2298
の変更	-10.2301
▁field	-10.2304
れた	-10.2306
▁'-	-10.2308
を行った	-10.2309
▁multi	-10.2309
プロトコルの	-10.2313
サポートされていない	-10.2313
lt	-10.232
▁(1)	-10.2322
sync	-10.2322
るかもしれません	-10.2324
を変更する	-10.2331
えません	-10.2333
た後	-10.2341
ビット単位	-10.2346
▁stack	-10.2347
newlines	-10.2349
▁IOBase	-10.2349
組み込み型	-10.2351
それら	-10.2351
▁浮動小数点数	-10.2355
されたもの	-10.236
子プロセスの	-10.2362
以下のコード	-10.2365
これらのメソッド	-10.2369
ずに	-10.2372
▁requests	-10.2374
▁桁	-10.2375
無し	-10.2378
要素のタプル	-10.2379
この例外は	-10.238
のフォーマット	-10.2381
状況で	-10.2385
を参照する	-10.2386
際には	-10.2392
78	-10.2418
+2	-10.242
95	-10.2422
▁コード	-10.2426
る前に	-10.2432
組み合わせ	-10.2436
▁文で	-10.2442
ary	-10.2442
▁reset	-10.2449
以降	-10.2462
的には	-10.2466
が使われ	-10.2467
ないことに注意してください	-10.2474
▁以下に	-10.2474
eq	-10.2482
▁'-'	-10.2486
▁main	-10.2496
▁23	-10.2498
▁Pool	-10.2499
せる	-10.25
▁辞書	-10.2502
▁digit	-10.2502
▁以外の	-10.2503
▁Lock	-10.2503
動作する	-10.2505
反復	-10.2505
EL	-10.2506
net	-10.2506
▁me	-10.2509
TER	-10.2517
▁valid	-10.2518
以下のメソッド	-10.2528
引数リスト	-10.2533
▁bool	-10.2534
ice	-10.2539
timezone	-10.254
を再	-10.2545
だけの	-10.2567
Message	-10.2571
wi	-10.2574
メイン	-10.2576
double	-10.2579
proxy	-10.2579
▁emit	-10.258
contains	-10.2582
待ち	-10.2586
flush	-10.2587
password	-10.2589
release	-10.259
人	-10.2592
表す	-10.2597
データ構造	-10.2599
小さい	-10.2599
バイトオーダ	-10.26
であると	-10.2601
extension	-10.2601
cls	-10.2602
Err	-10.2602
USE	-10.2602
move	-10.2603
DTD	-10.2604
呼び出さ	-10.2605
種	-10.2605
プール	-10.2606
すぐに	-10.2606
NNTP	-10.2606
accumulate	-10.2606
location	-10.2606
sleep	-10.2606
エポック	-10.2606
エ	-10.2606
フラッシュ	-10.2606
完全に	-10.2606
▁tempfile	-10.2606
case	-10.2607
READ	-10.2607
▁difflib	-10.2607
ログ記録	-10.2607
SEE	-10.2607
▁asyncio	-10.2607
chmod	-10.2608
▁に似ています	-10.2608
executable	-10.261
▁31	-10.2612
高い	-10.2614
つ以上の	-10.2615
シンプルな	-10.2616
Test	-10.2617
を指定した場合	-10.2618
を実装します	-10.2621
seconds	-10.2621
書き込み可能な	-10.2621
▁even	-10.2626
▁bz	-10.2629
▁member	-10.2631
nframes	-10.2635
に関連付けられた	-10.2635
▁importlib	-10.2635
ark	-10.2638
この機能は	-10.2652
▁OpenerDirector	-10.2654
したものです	-10.2655
部分シーケンス	-10.2659
例は	-10.266
▁を使った	-10.2661
▁すべての	-10.2662
▁spawn	-10.2664
▁を使うと	-10.2677
を使用し	-10.2684
サブモジュール	-10.2687
poll	-10.2699
,))	-10.2702
)*	-10.2707
▁globals	-10.2709
見つかった	-10.2716
disabled	-10.2716
単一	-10.2719
▁~	-10.2723
プラットフォームで	-10.2735
例を示します	-10.2743
呼び出すと	-10.275
の代わりに	-10.2753
開きます	-10.2755
与えられ	-10.2764
▁次の	-10.2768
▁{0	-10.277
man	-10.2771
の挙動	-10.2771
CAN	-10.2784
のパス	-10.2785
通知	-10.2793
推奨され	-10.28
▁locals	-10.2801
を避ける	-10.2809
にできます	-10.2813
の中の	-10.2816
をつけ	-10.2816
プログラムを	-10.2816
▁hex	-10.2816
/')	-10.2825
ting	-10.2825
字	-10.2828
行います	-10.2838
ソケットは	-10.284
された場合	-10.2846
時間の	-10.2846
算術	-10.2856
を見	-10.2858
が起き	-10.2863
呼ばれます	-10.2867
コンストラクター	-10.2868
▁CERT	-10.288
▁が指定された場合	-10.2884
ん	-10.2887
events	-10.2887
したい場合	-10.2898
とすると	-10.2907
place	-10.2912
▁echo	-10.2918
▁env	-10.2919
ENT	-10.2939
▁でない場合	-10.2943
▁relative	-10.2946
ストリームの	-10.295
▁引数の	-10.295
の間	-10.2953
-1)	-10.2957
扱う	-10.2959
有	-10.296
強制	-10.2961
ないか	-10.2962
ts	-10.2964
を明示的に	-10.2966
後ろ	-10.2968
▁space	-10.2968
▁データベース	-10.297
対話	-10.2977
び	-10.2978
優先順位	-10.2978
を超え	-10.2979
最大で	-10.2984
接続が	-10.2985
作成された	-10.2988
Warning	-10.2989
異	-10.2989
`	-10.299
channel	-10.299
GET	-10.299
代替	-10.299
BytesIO	-10.299
InterruptedError	-10.299
Random	-10.299
▁automatically	-10.299
▁marshal	-10.299
を渡して	-10.299
具象	-10.299
Array	-10.299
label	-10.299
ordinal	-10.299
resolve	-10.299
variance	-10.299
厳密な	-10.299
抽象基底クラス	-10.299
IntEnum	-10.299
▁correspond	-10.299
▁xmlrpc	-10.299
を持った	-10.299
のコピー	-10.299
POST	-10.299
標準入力	-10.299
特有の	-10.299
functools	-10.299
▁stringprep	-10.299
真偽値	-10.299
違う	-10.299
加算	-10.299
復元	-10.299
▁want	-10.2991
セマフォ	-10.2991
▁original	-10.2991
なぜなら	-10.2991
▁smtplib	-10.2991
固定	-10.2991
▁distribution	-10.2991
site	-10.2991
▁possible	-10.2991
辞書に	-10.2991
単語	-10.2992
cwd	-10.2992
FMT	-10.2992
のか	-10.2993
キーと値	-10.2994
glob	-10.2995
^	-10.2995
して下さい	-10.2995
cast	-10.2995
Manager	-10.2995
何もしません	-10.2996
Perm	-10.2996
モードで	-10.2996
lambda	-10.2997
chat	-10.2999
省略された場合	-10.3
▁2**	-10.3002
Queue	-10.3003
▁3.0	-10.3004
character	-10.3006
empty	-10.3007
を作ります	-10.3007
mean	-10.3007
child	-10.3007
')]	-10.301
exception	-10.301
付けられ	-10.301
subparsers	-10.3011
▁Formatter	-10.3012
make	-10.3013
▁と呼ばれます	-10.3017
tarfile	-10.3021
させます	-10.3026
が設定されてい	-10.3027
tell	-10.3027
に変換し	-10.3028
▁go	-10.3028
存在し	-10.303
ておらず	-10.3037
使い方	-10.3038
▁fib	-10.304
▁結果	-10.3044
▁FOO	-10.3046
▁ラベル	-10.3047
受け付けるようになりました	-10.3047
受け取る	-10.3051
主に	-10.3055
▁fork	-10.3058
実装では	-10.3062
のと同じ	-10.3063
方式	-10.3067
1234	-10.3069
tzname	-10.307
LD	-10.3072
▁signed	-10.3073
hours	-10.3077
出力されます	-10.3078
かを	-10.3078
lineno	-10.3081
▁needs	-10.3083
作成します	-10.3083
run	-10.3083
として扱われます	-10.3092
▁many	-10.3094
▁hostname	-10.3098
RT	-10.31
あなたの	-10.3106
▁html	-10.311
abs	-10.3112
登録された	-10.3117
型のオブジェクト	-10.312
▁64	-10.312
のデフォルト値は	-10.3123
▁19	-10.3123
/>	-10.3127
既に	-10.3129
のため	-10.3139
順序で	-10.3142
▁Us	-10.3145
を示しています	-10.315
▁real	-10.3152
old	-10.3154
属性値	-10.3157
ソケットが	-10.3157
両方	-10.3162
▁このモジュール	-10.3162
▁delay	-10.3165
▁https	-10.3167
▁dictionary	-10.3174
インスタンス変数	-10.3179
を選択	-10.318
なしで	-10.318
を表示する	-10.3184
あ	-10.3189
が渡され	-10.3193
することはできません	-10.3194
が実行され	-10.3199
ソケットオブジェクト	-10.3203
ライブラリの	-10.3204
他	-10.3206
▁CPU	-10.3208
▁GNU	-10.3208
▁Thread	-10.3208
tur	-10.3218
に必要な	-10.3219
try	-10.322
gra	-10.3226
▁Data	-10.3234
解釈されます	-10.3237
特殊メソッド	-10.3239
を実行し	-10.3241
呼び出します	-10.3244
▁clear	-10.3246
▁は文字列	-10.3248
TR	-10.325
[0])	-10.3251
の大きさ	-10.3251
を用い	-10.3251
▁において	-10.3256
▁simple	-10.3267
microseconds	-10.3267
値を返す	-10.3272
▁呼び出し	-10.3273
ないため	-10.3274
同時に	-10.3276
▁namedtuple	-10.3277
クラス属性	-10.328
▁Match	-10.3281
▁utf	-10.3281
▁が与えられ	-10.3283
tool	-10.3284
指定されない場合	-10.3296
port	-10.3298
調べ	-10.3303
ファイルや	-10.3306
44	-10.3312
▁イテレータ	-10.3313
基底クラスです	-10.3314
qua	-10.332
66	-10.3324
▁fold	-10.3326
このハンドラ	-10.3326
▁証明書	-10.3331
▁addr	-10.3337
なくても	-10.334
▁compare	-10.3345
るまで	-10.3349
型です	-10.3354
処理されます	-10.3355
関数や	-10.3356
を与え	-10.3358
ここでは	-10.3358
▁var	-10.3364
digit	-10.3366
それ以外の場合	-10.3367
の動作	-10.3368
呼ぶ	-10.3374
取り出す	-10.3375
ることで	-10.3376
parameter	-10.3378
▁Start	-10.3378
もっと	-10.338
デーモン	-10.3383
ランダム	-10.3384
記	-10.3384
オブジェクトの型	-10.3385
▁</	-10.3386
誤	-10.3388
▁エラー	-10.3388
シンボル	-10.339
NOT	-10.339
権限	-10.339
ダ	-10.339
origin	-10.339
分布	-10.339
音声データ	-10.339
Buffer	-10.339
作られた	-10.339
スロット	-10.339
kernel	-10.339
terminal	-10.339
terminator	-10.339
START	-10.339
根底の	-10.339
denominator	-10.339
▁InputSource	-10.339
レジストリ	-10.339
still	-10.339
提案	-10.339
▁Tcl	-10.339
いつでも	-10.339
経	-10.339
受理	-10.3391
▁formatted	-10.3391
alias	-10.3391
▁IndexError	-10.3391
を返さなければなりません	-10.3391
リーダ	-10.3391
▁unicodedata	-10.3391
適合	-10.3391
下位	-10.3391
再帰的に	-10.3391
▁と同様に	-10.3392
▁asyncore	-10.3392
前者	-10.3394
カー	-10.3394
getter	-10.3394
subject	-10.3394
BaseManager	-10.3395
inheritable	-10.3395
XMLRPC	-10.3396
▁Attributes	-10.3397
▁を送出し	-10.3397
を表現します	-10.3397
dispatcher	-10.3398
▁dur	-10.3399
+)	-10.34
のファイル	-10.3401
もっとも	-10.3401
walk	-10.3402
(['--	-10.3406
ence	-10.3408
prefixes	-10.3411
次元	-10.3413
が行われ	-10.3414
▁バイナリ	-10.3416
share	-10.3417
Writer	-10.3417
▁factory	-10.3423
秒数	-10.3423
([1,	-10.3423
▁":"	-10.3425
からなるリスト	-10.3426
ciphers	-10.343
と同じ意味	-10.3436
task	-10.3438
mailbox	-10.3439
false	-10.344
CGI	-10.3441
以降の	-10.3443
which	-10.3445
にして	-10.3447
▁strftime	-10.3451
▁Exception	-10.3452
のない	-10.3458
も参照してください	-10.3465
has	-10.3467
▁[--	-10.3471
ものが	-10.3471
れる	-10.3475
▁priority	-10.3482
スレッドは	-10.3485
なのか	-10.3488
▁status	-10.3491
変更したり	-10.3494
ni	-10.3496
▁もしくは	-10.3498
されると	-10.3502
!"	-10.3504
を行うと	-10.3514
▁elem	-10.3516
だけを	-10.3516
475	-10.3518
でも構いません	-10.352
full	-10.3524
=('	-10.3525
res	-10.3536
▁si	-10.3539
headers	-10.3555
似ています	-10.3561
利用でき	-10.3563
docs	-10.3566
▁ヘッダ	-10.3568
ために使われます	-10.3569
files	-10.3574
IC	-10.3578
回数	-10.3578
OO	-10.3578
ERR	-10.358
▁means	-10.3582
▁が偽	-10.3588
cd	-10.3589
カスタムの	-10.359
999	-10.3594
ユーザは	-10.3599
長さが	-10.3601
▁bit	-10.3609
ときの	-10.361
このモジュールで	-10.3619
▁side	-10.3624
ようにします	-10.3624
▁でなければなりません	-10.3627
の内部	-10.3637
存在する	-10.3648
する前に	-10.3649
1>	-10.3653
イベントの	-10.3654
ten	-10.3655
方の	-10.3658
▁versions	-10.3662
表現形式	-10.3666
▁change	-10.3671
現在のプロセス	-10.368
▁データ	-10.3681
▁public	-10.3688
ub	-10.369
AN	-10.3691
値で	-10.3702
xb	-10.3709
fp	-10.3712
▁サブクラス	-10.3713
指定する	-10.3713
▁->	-10.3724
▁comment	-10.3728
▁escape	-10.3728
▁diff	-10.3729
されず	-10.3733
この動作	-10.3734
▁を持つ	-10.3737
がない場合は	-10.3748
post	-10.3751
BE	-10.3763
オブジェクトに対して	-10.3764
▁suffix	-10.3766
等価な	-10.3766
▁のどちらか	-10.3766
コンストラクタは	-10.3771
とも	-10.3772
▁glob	-10.3777
場合に送出されます	-10.3782
例です	-10.3782
出来	-10.3783
98	-10.3789
serve	-10.3792
失敗	-10.3795
▁decode	-10.3802
するまで	-10.3804
を全て	-10.3804
解	-10.3805
に応じて	-10.3806
install	-10.3806
木	-10.3806
所有	-10.3806
▁trans	-10.3807
カテゴリ	-10.3807
メタデータ	-10.3807
リモート	-10.3807
ATTRIBUTE	-10.3807
Java	-10.3807
REQUIRED	-10.3807
STREAM	-10.3807
absolute	-10.3807
alpha	-10.3807
▁particular	-10.3807
を以下に示します	-10.3807
パフォーマンス	-10.3807
▁NormalDist	-10.3807
攻撃	-10.3807
discard	-10.3807
scandir	-10.3807
▁mimetypes	-10.3807
を除いて	-10.3807
Action	-10.3807
ルール	-10.3807
は行われません	-10.3807
最適化	-10.3807
補完	-10.3807
は以下の通りです	-10.3807
▁NULL	-10.3807
一切	-10.3807
▁authkey	-10.3807
の入った	-10.3807
▁directly	-10.3808
gular	-10.3808
letter	-10.3809
開始方式	-10.3809
▁mbox	-10.3809
しかしながら	-10.3809
よい	-10.3809
▁nonlocal	-10.381
▁fractions	-10.3811
▁unpickle	-10.3812
▁representation	-10.3812
▁maxsplit	-10.3815
509	-10.3818
通信	-10.3819
引き	-10.382
zone	-10.382
警告	-10.3821
を閉じます	-10.3823
単位で	-10.3823
▁[('	-10.3823
OUT	-10.3827
▁suite	-10.3836
field	-10.3836
ペア	-10.3836
整数値	-10.3842
操作が	-10.3845
が存在する	-10.3847
▁2.0	-10.385
行に	-10.386
これには	-10.3861
ue	-10.3864
▁節の	-10.3864
の先頭に	-10.3867
dec	-10.3869
ial	-10.3872
▁header	-10.3878
同一の	-10.3879
5.0	-10.388
▁written	-10.3884
({'	-10.3884
echo	-10.3887
escape	-10.3887
bool	-10.3889
stream	-10.3889
▁vars	-10.3891
comment	-10.3892
common	-10.3892
ということ	-10.3893
feature	-10.3893
fork	-10.3895
UTC	-10.3898
実際	-10.3898
▁Un	-10.3901
email	-10.3903
削除されます	-10.3907
ハンドラの	-10.3908
シフト	-10.3908
▁イベント	-10.391
▁classes	-10.3911
の種類	-10.3911
builtins	-10.3913
pad	-10.3918
▁enable	-10.392
real	-10.3921
▁で始まる	-10.3924
エラー処理	-10.3924
実行時に	-10.3926
Selector	-10.3929
メソッドです	-10.393
imap	-10.3931
読み出し専用の	-10.3931
以下の例	-10.3937
▁fromfile	-10.3949
のではなく	-10.3955
▁以前は	-10.3956
が与えられた場合	-10.3957
▁compress	-10.3959
ound	-10.3964
のバイト数	-10.3966
ロガーの	-10.3967
▁await	-10.398
act	-10.3981
が含まれます	-10.3989
の内容は	-10.399
▁を指定すると	-10.399
▁done	-10.3991
CK	-10.4001
されていません	-10.4007
整数です	-10.4009
を決定する	-10.4009
▁chain	-10.4012
▁IBM	-10.4012
マッチします	-10.4016
▁非同期	-10.4017
ハンドラー	-10.4018
31	-10.4022
▁lines	-10.4024
のテキスト	-10.4026
空の文字列	-10.4029
似た	-10.4032
-32	-10.4044
▁Future	-10.4044
▁begin	-10.4044
▁50	-10.4058
向	-10.4064
でなければ	-10.4066
ますが	-10.4067
発生する	-10.4079
▁strings	-10.4079
▁HTMLParser	-10.4081
▁verbose	-10.4081
▁internal	-10.4081
ベースの	-10.4083
pathname	-10.4092
のペア	-10.4096
の場合には	-10.4105
内部で	-10.4119
▁Be	-10.4128
上記	-10.4129
ish	-10.4136
▁の値が	-10.4147
を呼び出します	-10.4149
1/	-10.4153
▁bisect	-10.4155
mk	-10.4162
▁オブジェクトです	-10.4165
▁case	-10.417
ロ	-10.4175
りません	-10.4175
操作を	-10.4177
絶対パス	-10.418
を受け付けます	-10.418
▁Name	-10.4181
▁0.0	-10.4183
arr	-10.4183
AV	-10.4184
を保持する	-10.4185
の数字	-10.419
▁bufsize	-10.4192
独	-10.42
pairs	-10.4204
評価され	-10.4221
していません	-10.4221
例外を送出し	-10.4222
▁specifie	-10.4224
付きで	-10.4227
▁ConfigParser	-10.423
改	-10.423
名は	-10.4232
▁inherit	-10.4232
DATA	-10.4235
constant	-10.4237
NONE	-10.4238
actor	-10.424
たとえ	-10.4241
考慮	-10.4241
unicode	-10.4242
足	-10.4242
コロン	-10.4242
クォート	-10.4242
たくさん	-10.4242
幾つかの	-10.4242
ちょうど	-10.4242
排他的	-10.4242
暗黙的に	-10.4242
banana	-10.4242
cycle	-10.4242
detect	-10.4242
predicate	-10.4242
refresh	-10.4242
slots	-10.4242
▁SequenceMatcher	-10.4242
▁behavior	-10.4242
復帰	-10.4242
ニ	-10.4242
エクスポート	-10.4242
脆弱	-10.4242
書き込む	-10.4242
一連の	-10.4242
children	-10.4242
UNIX	-10.4242
有限	-10.4242
dead	-10.4243
最近	-10.4243
▁Create	-10.4243
イン	-10.4243
topsecret	-10.4244
実現	-10.4244
リア	-10.4244
replacement	-10.4244
深い	-10.4246
direction	-10.4246
▁Get	-10.4246
▁sound	-10.4247
▁が送出され	-10.4248
▁MH	-10.4248
必要はありません	-10.425
が入っています	-10.425
DNS	-10.4252
'),),	-10.4252
関数を定義しています	-10.4255
truncate	-10.4256
決定されます	-10.4257
ify	-10.4258
▁fileinput	-10.4259
ham	-10.4261
something	-10.4261
HTTPConnection	-10.4261
行番号	-10.4264
プロセスを	-10.4265
一度だけ	-10.4267
場合にのみ	-10.4267
▁にセット	-10.4274
▁ignored	-10.4277
メソッドを呼び出す	-10.4282
▁の例	-10.4286
tion	-10.4295
更新します	-10.4299
▁prog	-10.4305
非同期	-10.4312
emp	-10.4314
defaults	-10.4316
▁Yo	-10.4317
▁回	-10.4317
future	-10.4318
▁の要素	-10.4318
それ以外の場合は	-10.4325
子プロセスが	-10.4327
最小	-10.4331
したとき	-10.4343
▁seq	-10.4345
プラットフォームの	-10.4345
シーケンスは	-10.4352
effects	-10.4354
を計算する	-10.4355
を意味します	-10.4358
delete	-10.4359
total	-10.4361
Lock	-10.4361
acquire	-10.4367
color	-10.4368
Match	-10.4368
Default	-10.4369
complex	-10.4369
に送出されます	-10.4371
ABC	-10.4371
第二引数	-10.4372
except	-10.4372
ものとして	-10.4373
送信する	-10.4373
▁universal	-10.4375
▁(3)	-10.4377
▁リテラル	-10.4379
▁extract	-10.4381
▁Ho	-10.4382
を読み込む	-10.4392
確認	-10.4392
"))	-10.4393
呼び出し可能	-10.4397
('3.	-10.4399
るときに	-10.442
の場合に	-10.4422
For	-10.4422
▁fragment	-10.4424
▁'0	-10.4424
インタプリタは	-10.4428
のに使えます	-10.4429
▁上記の	-10.4432
が定義されています	-10.4433
のエンコーディング	-10.4438
が含まれてい	-10.4439
入力された	-10.4442
なくてはなりません	-10.4444
このオブジェクトは	-10.4445
を使ってください	-10.4447
AT	-10.4448
読み出し専用	-10.4451
する必要がある	-10.4451
Lo	-10.4454
attrs	-10.4459
われ	-10.446
するような	-10.4461
コールバック関数	-10.4464
▁が真	-10.4481
に制限	-10.4484
を使用した	-10.4487
▁Tix	-10.449
キーを	-10.4497
キーが	-10.4499
が指定された場合	-10.45
を指定して	-10.4503
部分文字列	-10.4511
▁接続	-10.4513
FF	-10.4516
In	-10.4518
non	-10.4521
で使用される	-10.4521
pyc	-10.4526
-8')	-10.4531
ブロックします	-10.4531
today	-10.4533
▁の値は	-10.4535
▁unpack	-10.4541
▁レベル	-10.4552
ES	-10.4553
で指定された	-10.4559
▁disable	-10.4562
を使用すると	-10.4564
サーバに	-10.4571
cos	-10.4571
出力は	-10.4571
BZ	-10.4573
ていれば	-10.4573
でした	-10.4574
をオーバーライド	-10.4584
の指定	-10.46
HA	-10.4602
ated	-10.4605
▁scope	-10.4606
)))	-10.4607
▁recv	-10.4607
構文解析	-10.4616
アプリケーションが	-10.4619
たいてい	-10.4624
▁creat	-10.4631
▁invalid	-10.4638
nl	-10.4639
▁Expat	-10.464
便利	-10.4655
は自動的に	-10.4655
みます	-10.4655
なっている	-10.4657
データストリーム	-10.4657
モジュールは	-10.4662
▁pop	-10.4668
da	-10.4668
体	-10.4672
を作り	-10.4677
省略され	-10.4685
▁lambda	-10.4689
TYPE	-10.4689
ike	-10.4689
System	-10.4691
内包表記	-10.4692
可	-10.4694
と仮定し	-10.4695
約	-10.4696
呼	-10.4696
NAME	-10.4696
とはいえ	-10.4696
望ましい	-10.4696
ボタン	-10.4696
ガベージコレクション	-10.4696
シーク	-10.4696
ム	-10.4696
LOCAL	-10.4696
align	-10.4696
prompt	-10.4696
recursive	-10.4696
▁Dialect	-10.4696
▁configuration	-10.4696
▁positive	-10.4696
▁tail	-10.4696
を渡します	-10.4696
unseen	-10.4696
RAW	-10.4696
literal	-10.4696
▁cgitb	-10.4696
一時停止	-10.4696
slide	-10.4696
互いに	-10.4696
境界	-10.4696
▁selectors	-10.4696
▁Executor	-10.4696
▁ensure	-10.4696
Widget	-10.4697
▁made	-10.4697
存在すれば	-10.4697
quantize	-10.4697
attrib	-10.4697
nchannels	-10.4697
▁HMAC	-10.4697
▁least	-10.4697
プロ	-10.4697
LINE	-10.4697
計算機	-10.4697
不変	-10.4697
LAW	-10.4698
quit	-10.4698
プログラム例です	-10.4698
もはや	-10.4699
オー	-10.4699
▁secrets	-10.47
▁choices	-10.4701
効率的な	-10.4702
▁さらに	-10.4713
getpass	-10.4713
ell	-10.4717
オリジナルの	-10.4719
せん	-10.472
atch	-10.4725
apply	-10.4731
正規化	-10.4733
別	-10.4734
型を	-10.474
るため	-10.4742
jp	-10.4745
を有効に	-10.4748
fn	-10.4748
自体は	-10.475
例として	-10.476
分数	-10.4762
setitem	-10.4765
読み込みます	-10.4773
▁HTTPS	-10.4779
をカスタマイズする	-10.4781
複数行	-10.4783
送出される例外です	-10.4784
構成要素	-10.479
word	-10.4794
続いて	-10.4797
負の値	-10.48
文字列として	-10.4802
の浮動小数点数	-10.4807
てもかまいません	-10.4813
▁opened	-10.4814
中断	-10.4814
を取得し	-10.4826
TH	-10.4835
▁product	-10.4836
この値	-10.4838
高水準の	-10.4838
rc	-10.484
LF	-10.484
場合でも	-10.4841
▁mask	-10.4842
▁オプションの引数	-10.4844
'1'	-10.4848
に束縛され	-10.4857
▁cmd	-10.4858
debug	-10.486
文字列表現	-10.486
project	-10.486
ていて	-10.4861
clear	-10.4864
▁ファイルオブジェクト	-10.4864
を受け取る	-10.4864
▁までの	-10.4865
が使えます	-10.4867
に関する情報	-10.4867
Thread	-10.4869
アルゴリズムは	-10.487
一度に	-10.4872
UUID	-10.4874
を追加しました	-10.4874
▁pip	-10.4874
他に	-10.4874
使うこと	-10.4875
下の	-10.4875
Data	-10.4878
た場合は	-10.4878
▁put	-10.488
▁kill	-10.4882
▁(2)	-10.4887
words	-10.4889
入力が	-10.4889
filter	-10.489
フォーマット文字列	-10.4893
ハンドラが	-10.4899
詳しくは	-10.4903
▁built	-10.4905
wb	-10.4909
rw	-10.4912
出力します	-10.4913
▁FIFO	-10.4916
supports	-10.4919
▁255	-10.4932
▁の代わりに	-10.4938
▁o	-10.4942
▁属性を	-10.4944
方法です	-10.4947
は無視され	-10.4951
▁上の	-10.4952
▁IntFlag	-10.4956
▁urlopen	-10.4958
外側の	-10.4958
▁を使用する	-10.496
conf	-10.4962
▁SIG	-10.4964
が同じ	-10.4965
xz	-10.4973
▁データ型	-10.4979
Py	-10.4979
を使うこと	-10.4984
▁55	-10.4989
93	-10.4993
▁append	-10.4994
先頭に	-10.4995
▁Repr	-10.4997
のソケット	-10.5001
を提供し	-10.5003
を記述する	-10.501
▁?	-10.501
最初	-10.5015
▁実装	-10.5025
▁ftp	-10.5036
▁をサポートしています	-10.5038
文字列のリスト	-10.5039
▁pair	-10.5043
バイト数	-10.5044
があると	-10.5051
09	-10.5051
▁60	-10.5054
言語の	-10.5068
gd	-10.5069
0.1	-10.5075
て返します	-10.5077
たい場合	-10.5077
が呼び出され	-10.5094
▁logger	-10.5101
マッチした	-10.5101
param	-10.5107
symlink	-10.5108
ものと	-10.5108
がすでに	-10.5112
▁microsecond	-10.5118
(10))	-10.5119
Sub	-10.5137
利用する	-10.5141
全体を	-10.5147
▁組み込み関数	-10.5149
を解析し	-10.5152
接続の	-10.5153
▁whe	-10.5156
しており	-10.5156
ネイティブ	-10.516
▁present	-10.5163
ブロッキング	-10.5164
very	-10.5167
この関数が	-10.5167
choice	-10.5168
補	-10.5168
カ	-10.5168
▁verify	-10.5169
elements	-10.517
返さ	-10.5171
初	-10.5171
象	-10.5172
所	-10.5172
として使う	-10.5172
介	-10.5172
NUL	-10.5172
図	-10.5172
つき	-10.5172
半	-10.5172
▁person	-10.5173
キャンセル	-10.5173
物	-10.5173
の直後	-10.5173
切り詰め	-10.5173
Program	-10.5173
combined	-10.5173
▁persistent	-10.5173
CREATE	-10.5173
Template	-10.5173
blank	-10.5173
neighbor	-10.5173
policy	-10.5173
though	-10.5173
▁above	-10.5173
▁Morsel	-10.5173
いかなる	-10.5173
別々の	-10.5173
answer	-10.5173
average	-10.5173
ステップ	-10.5173
ハンドシェイク	-10.5173
whitespace	-10.5173
ベ	-10.5173
に適した	-10.5173
AIFF	-10.5173
BSD	-10.5173
レイアウト	-10.5173
述べる	-10.5173
静的メソッド	-10.5173
アラインメント	-10.5173
遅延	-10.5173
しばしば	-10.5173
失われ	-10.5173
なければいけません	-10.5173
▁chunksize	-10.5173
思	-10.5173
てしまいます	-10.5173
▁running	-10.5174
を見てください	-10.5174
アドレスファミリ	-10.5174
▁compresslevel	-10.5174
分解	-10.5174
書き出し	-10.5174
AUTH	-10.5175
範囲外	-10.5175
外部エンティティ	-10.5175
warning	-10.5175
可能な限り	-10.5177
を使うことで	-10.5177
だけでなく	-10.5177
▁EOFError	-10.5177
47	-10.5177
MyClass	-10.5178
▁constants	-10.5178
が指定されている場合	-10.5178
バイト値	-10.5182
▁utc	-10.5183
▁uu	-10.5183
urandom	-10.5183
ネイティブの	-10.5185
使用している	-10.5187
有用です	-10.5189
▁sent	-10.5189
▁が真の場合	-10.5192
指定されなかった場合	-10.5192
lk	-10.5194
対応付け	-10.5194
読み出し専用の属性	-10.5194
▁avoid	-10.5195
を決定します	-10.5196
timetuple	-10.5197
文書の	-10.5199
Real	-10.5205
=3)	-10.5205
▁proxy	-10.5208
expected	-10.5208
folder	-10.5208
コピーを返します	-10.521
に追加されます	-10.5211
それぞれの要素	-10.5213
実行する	-10.5221
▁からの	-10.5223
▁attrs	-10.5227
▁その他の	-10.5228
VER	-10.5229
▁plist	-10.5233
では動作	-10.5242
使用できる	-10.5247
ud	-10.5248
もう一つ	-10.5248
override	-10.5255
フラグが	-10.526
加えて	-10.5261
tolist	-10.5261
▁だった場合	-10.5264
変更可能な	-10.5274
実装の	-10.5274
▁モジュールが	-10.5274
typecode	-10.5279
使われています	-10.528
が与えられ	-10.5281
の符号	-10.5281
▁の形式	-10.5282
▁PATH	-10.5284
後方互換性のため	-10.5288
▁環境変数	-10.5288
コンパイルされた	-10.5291
De	-10.53
125	-10.5308
多くの場合	-10.5309
▁メソッドに	-10.5309
▁パラメータは	-10.5311
されること	-10.5315
クラスオブジェクト	-10.5315
▁wsgi	-10.5318
▁HTTPPasswordMgr	-10.5319
を実装した	-10.5319
64.	-10.5319
ておく	-10.5326
このように	-10.5327
▁sha	-10.5334
関連の	-10.5334
するのは	-10.5335
entity	-10.5336
としては	-10.5339
扱い	-10.5341
が指定された	-10.5342
pair	-10.5347
処理します	-10.535
しますが	-10.5352
tabs	-10.5352
▁に対応する	-10.5352
それ以外	-10.5352
comp	-10.5353
00,	-10.5356
/%	-10.536
▁entries	-10.5361
▁EOF	-10.5363
文字列の先頭	-10.5364
▁fileobj	-10.5366
▁例	-10.5368
2')	-10.5372
共通	-10.5373
rt	-10.538
シーケンスを	-10.5388
Point	-10.5393
LogRecord	-10.5394
description	-10.5396
command	-10.5397
math	-10.5397
directory	-10.54
Return	-10.5402
raise	-10.5402
sig	-10.5404
状態を	-10.5404
エントリは	-10.5407
▁システム	-10.5408
▁属性に	-10.5409
利用することができます	-10.5417
fileno	-10.5419
とは異なり	-10.542
allow	-10.5427
のまま	-10.5429
呼び出	-10.543
でなく	-10.5431
バイトを	-10.5434
設定されている場合	-10.5435
▁Maildir	-10.5442
られています	-10.5443
▁ST	-10.5443
action	-10.5447
挙動は	-10.5452
gt	-10.5455
テキストの	-10.5465
▁systems	-10.5469
xf	-10.5474
されるまで	-10.5484
lic	-10.5485
に入れ	-10.5486
:")	-10.5487
▁CookieJar	-10.5488
▁で定義されている	-10.5488
の一部として	-10.5491
も使えます	-10.5492
▁debug	-10.5492
▁handlers	-10.5493
▁project	-10.5495
▁構文	-10.5497
区別	-10.5499
呼び出した	-10.5501
▁変数	-10.5511
▁1000	-10.5513
urlopen	-10.5515
▁worker	-10.5519
だった	-10.552
String	-10.552
ノードの	-10.5523
▁high	-10.5525
インタプリタが	-10.553
対話的	-10.5534
▁total	-10.5538
先に	-10.5548
cal	-10.5552
が存在する場合	-10.5553
かのように	-10.5557
通り	-10.5561
rect	-10.5562
▁printf	-10.5563
このため	-10.5564
▁Ma	-10.5568
使用することができます	-10.557
▁であり	-10.5571
▁negative	-10.5574
▁日	-10.5578
▁正規表現	-10.5584
pipe	-10.5585
▁とは	-10.5596
▁detail	-10.5605
:00:00	-10.5609
特	-10.5618
▁opt	-10.5621
開	-10.5628
を実行します	-10.5629
重要	-10.564
で区切られた	-10.5641
与えられる	-10.5641
各行	-10.5641
の検索	-10.5642
▁tree	-10.5642
例外が送出され	-10.5653
呼ばれる	-10.5654
▁ウィジェット	-10.5656
にする	-10.5657
学	-10.5659
ENO	-10.566
後者の	-10.566
commit	-10.5664
大きい	-10.5665
下さい	-10.5667
タプルです	-10.5669
類	-10.5671
終	-10.5671
系	-10.5671
NT	-10.5671
プログラミング	-10.5671
▁define	-10.5672
線	-10.5672
ップ	-10.5672
底	-10.5672
心	-10.5672
push	-10.5672
余	-10.5673
連鎖	-10.5673
を含んだ	-10.5673
ミキサ	-10.5673
から始まる	-10.5673
ブール演算	-10.5673
After	-10.5673
scheduler	-10.5673
▁sunau	-10.5673
イテレーション	-10.5673
FieldStorage	-10.5673
HOST	-10.5673
Inexact	-10.5673
John	-10.5673
completion	-10.5673
external	-10.5673
interpolation	-10.5673
jack	-10.5673
maximum	-10.5673
pulldom	-10.5673
secure	-10.5673
▁again	-10.5673
章	-10.5673
ShareableList	-10.5673
西	-10.5673
雑	-10.5673
カウンタ	-10.5673
左から右へ	-10.5673
▁SimpleXMLRPC	-10.5673
メカニズム	-10.5673
走査	-10.5673
シンボリックリンクをたど	-10.5673
▁ContentHandler	-10.5673
が返ります	-10.5673
sqrt	-10.5673
NOTSET	-10.5673
score	-10.5673
合計	-10.5673
▁HTTPResponse	-10.5673
かった場合	-10.5674
configure	-10.5674
pwd	-10.5674
PROTO	-10.5674
trace	-10.5675
再帰的な	-10.5675
呼び出し規約	-10.5675
▁compression	-10.5675
ood	-10.5677
GR	-10.5678
置換フィールド	-10.5678
両	-10.5679
▁letters	-10.5679
NOTE	-10.5679
無く	-10.568
関連する	-10.568
に従います	-10.568
▁notify	-10.5681
▁certfile	-10.5682
もサポートしています	-10.5682
メモリブロック	-10.5683
ide	-10.5687
用いられます	-10.5688
このロガー	-10.5689
入力を	-10.5691
AS	-10.5693
▁を呼ぶ	-10.5693
▁clock	-10.5694
0.25	-10.5694
ndbm	-10.5694
自分で	-10.5694
次と等価です	-10.5694
ほとんどの場合	-10.5695
初期化されます	-10.5696
あなたが	-10.5697
ローカル変数	-10.57
doesn	-10.57
ia	-10.57
▁Object	-10.5703
変え	-10.5705
four	-10.5707
wchar	-10.5708
作成され	-10.5708
この例では	-10.5709
▁double	-10.571
ものがあります	-10.5711
に含まれてい	-10.5716
▁のいずれかです	-10.5719
754	-10.5719
ようになっています	-10.5719
▁[3,	-10.572
▁cls	-10.5721
の生成	-10.5726
▁しかし	-10.5732
astimezone	-10.5736
tmp	-10.5744
の際に	-10.5744
jis	-10.5746
▁を使用します	-10.5758
▁cases	-10.5758
演算結果	-10.5763
コードの	-10.5766
特殊文字	-10.5781
▁World	-10.5783
▁Packer	-10.5785
キーワード引数は	-10.5785
サポートされ	-10.5786
タプルは	-10.5786
▁depend	-10.5798
が閉じられ	-10.5798
削除され	-10.5799
▁chars	-10.5805
ical	-10.5809
出現	-10.5812
(":	-10.5813
が既に	-10.5825
▁Server	-10.5826
ake	-10.5828
(6)	-10.5829
▁depth	-10.5835
ソケットを	-10.5836
workers	-10.5839
を行い	-10.5846
...>	-10.5849
書き込まれ	-10.585
Do	-10.5858
してしまう	-10.5862
どのように	-10.5868
じ	-10.5868
のみが	-10.5868
の追加	-10.5871
▁cgi	-10.5877
▁mail	-10.5879
content	-10.5881
スクリプトを	-10.5883
定します	-10.5886
続け	-10.5886
▁contains	-10.5887
二つ	-10.5895
▁にある	-10.5895
ファイルへの	-10.5902
pre	-10.5903
まま	-10.5903
することが	-10.5905
サーバが	-10.5906
255	-10.591
latin	-10.5911
sequence	-10.5915
▁query	-10.5915
▁3]	-10.5916
-%	-10.5916
バッファの	-10.5916
▁を呼び出した	-10.5924
しようとする	-10.5926
るかどうか	-10.5927
設定ファイル	-10.593
生成する	-10.5932
の変換	-10.5935
▁を呼び出し	-10.5938
意味付け	-10.5939
SAX	-10.5941
chain	-10.5944
▁コルーチン	-10.5947
ignore	-10.5951
されていた	-10.5951
AD	-10.5952
json	-10.5953
が変更された	-10.5954
conn	-10.5954
を含んでいる	-10.5955
API	-10.596
ped	-10.5965
(["	-10.5965
注釈	-10.5965
受信した	-10.5972
を操作する	-10.5975
so	-10.5977
すること	-10.5986
ファイルオブジェクトの	-10.5988
が含まれ	-10.5991
処理は	-10.5995
global	-10.6
▁は以下の	-10.6001
members	-10.6006
SC	-10.601
enum	-10.6014
に似た	-10.6015
衝突	-10.602
POP	-10.6028
tk	-10.603
▁ある	-10.6034
なりました	-10.6037
に続く	-10.6039
到達	-10.6041
現れる	-10.6045
rename	-10.6046
を表す文字列	-10.6048
▁OrderedDict	-10.605
ように動作します	-10.605
内容が	-10.6051
▁コンテキスト	-10.6056
出現する	-10.6056
名前空間の	-10.6057
メソッドが呼び出され	-10.6061
も利用できます	-10.6068
プログラムは	-10.6074
がどのように	-10.608
6]	-10.6086
キューの	-10.6089
▁のデフォルト	-10.6093
▁members	-10.6094
▁BufferedIOBase	-10.6095
▁SharedMemory	-10.6095
▁が与えられた場合	-10.6102
▁builtins	-10.6103
▁terminate	-10.6105
済みの	-10.6109
オプションを	-10.611
がない場合	-10.6112
▁Flag	-10.6126
を確認し	-10.6128
最初の行	-10.613
▁1),	-10.6133
▁setting	-10.6135
our	-10.6137
単純	-10.6142
書式で	-10.6142
▁words	-10.6143
▁99	-10.6144
を開始する	-10.6145
ous	-10.6156
例外クラス	-10.6157
▁[("	-10.6159
SF	-10.6169
が行われます	-10.618
final	-10.6182
非推奨	-10.6188
lease	-10.6193
ハッシュ値	-10.6193
再帰	-10.6194
fraction	-10.6194
およそ	-10.6195
マスク	-10.6197
気	-10.6197
Config	-10.6197
submit	-10.6197
頭	-10.6198
算	-10.6198
集	-10.6198
括弧	-10.6198
調	-10.6198
Babyl	-10.6199
素	-10.6199
スラッシュ	-10.6199
floor	-10.6199
バインド	-10.6199
リリース	-10.6199
Button	-10.6199
うまく	-10.6199
を通じて	-10.6199
ミリ秒	-10.6199
Application	-10.6199
DEBUG	-10.6199
標準エラー出力	-10.6199
ABCDEFG	-10.6199
SQUARE	-10.6199
entities	-10.6199
shutdown	-10.6199
voltage	-10.6199
▁Differ	-10.6199
▁appropriate	-10.6199
▁determine	-10.6199
▁hmac	-10.6199
▁population	-10.6199
▁similar	-10.6199
Animal	-10.6199
PrettyPrinter	-10.6199
▁Unpacker	-10.6199
背景	-10.6199
XXX	-10.6199
▁authentication	-10.6199
の並び	-10.6199
▁attempt	-10.6199
念	-10.6199
reason	-10.6199
State	-10.6199
Pipe	-10.6199
InvalidOperation	-10.6199
たびに	-10.6199
抜け	-10.6199
分散	-10.6199
divmod	-10.6199
▁binhex	-10.6199
が生じ	-10.6199
向け	-10.6199
StringIO	-10.62
▁指定子	-10.62
▁進表記	-10.62
fnmatch	-10.6201
への相対パス	-10.6201
ラン	-10.6201
▁epoll	-10.6202
▁mac	-10.6202
上限	-10.6202
三つの	-10.6203
▁(3,	-10.6203
mboxMessage	-10.6205
Input	-10.6205
▁conversion	-10.6206
logical	-10.6206
▁fibo	-10.6206
CTYPE	-10.6207
マルチスレッド	-10.6207
getattribute	-10.6208
ALL	-10.6208
gen	-10.6208
▁salt	-10.6209
finalize	-10.621
にアクセスし	-10.6211
かどうかを調べます	-10.6212
安全な	-10.6212
▁数値	-10.6215
再び	-10.6216
挿入されます	-10.6218
PEM	-10.6219
orange	-10.6222
BAR	-10.6223
▁を開きます	-10.6224
▁heap	-10.6226
▁が呼ばれます	-10.6229
が渡された場合	-10.6232
']['	-10.6234
ご	-10.6235
UID	-10.6235
exitcode	-10.6237
を取ります	-10.6238
先頭	-10.6243
提供される	-10.6245
を制御します	-10.6246
▁を呼び出すと	-10.6248
分か	-10.6248
だと	-10.6253
設定を	-10.6254
コードオブジェクト	-10.6255
個別の	-10.6259
を必要とする	-10.6259
▁メソッドによって	-10.6267
ことが出来ます	-10.6267
▁preserve	-10.627
がサポートされています	-10.6271
失敗した	-10.6273
.8.	-10.6276
のに使われます	-10.6277
fromtimestamp	-10.6278
mon	-10.6281
向き	-10.6282
▁個	-10.6289
setattr	-10.629
とても	-10.6292
▁St	-10.6296
tol	-10.63
ものは	-10.6301
コ	-10.6305
を見つける	-10.6305
と同じになります	-10.631
を受け付け	-10.6311
実行中	-10.6312
den	-10.6315
▁関数で	-10.6318
scr	-10.632
▁の範囲	-10.6321
▁operations	-10.6324
コンテキスト変数	-10.6326
nlines	-10.6327
パース時	-10.6327
ない場合には	-10.6327
▁pad	-10.6331
することです	-10.6332
を検索し	-10.6333
追加した	-10.6336
csvfile	-10.6338
"\	-10.6345
オブジェクトに対する	-10.636
▁OP	-10.637
エンコーディングは	-10.6378
属性参照	-10.6382
変数を	-10.6384
大きさ	-10.6386
できるようにする	-10.6387
▁app	-10.6392
この操作	-10.6395
しても	-10.6396
なし	-10.6397
されていて	-10.6398
置き換えられ	-10.6401
▁difference	-10.6408
受け入れ	-10.6412
▁22	-10.6421
▁15	-10.6424
opener	-10.6431
▁counter	-10.6456
にのみ	-10.6458
設定する	-10.6461
行いません	-10.6464
と同様	-10.6466
ious	-10.6466
member	-10.6466
('1	-10.6469
ほうが	-10.647
どのような	-10.6477
ame	-10.6477
▁separator	-10.6481
を指定すると	-10.6501
OSS	-10.6502
▁mailcap	-10.6503
delay	-10.6506
は次のように	-10.651
mail	-10.651
例外です	-10.6512
を指定することができます	-10.6512
xor	-10.6528
EOF	-10.653
kill	-10.6531
▁res	-10.6531
simple	-10.6535
cgi	-10.6536
indent	-10.6536
の扱い	-10.6542
sequences	-10.6543
model	-10.6547
取り出し	-10.6548
▁sizeof	-10.6554
返り	-10.6566
が返す	-10.657
counter	-10.6571
▁unl	-10.6575
▁クラスのインスタンス	-10.6576
が必要な場合	-10.6577
reset	-10.6581
requires	-10.6587
▁メソッドと	-10.6589
作成する	-10.6591
any	-10.6593
▁TCP	-10.6598
▁RLock	-10.6599
ミュータブルな	-10.6601
▁OR	-10.6603
単位	-10.6603
▁delete	-10.6607
▁effect	-10.6612
done	-10.6612
同じ名前の	-10.6613
呼び出し元	-10.6617
対数	-10.6617
codec	-10.6621
例外情報	-10.6622
の構文	-10.6627
構造体の	-10.6632
以前	-10.6634
▁top	-10.6635
▁lists	-10.6638
したら	-10.6641
拡張モジュール	-10.6646
主	-10.6654
同一	-10.6661
したい場合は	-10.6662
writer	-10.6663
切り	-10.6664
stop	-10.6665
リクエストの	-10.667
PoolExecutor	-10.6671
もう一つの	-10.6672
結果を返します	-10.6681
を必要と	-10.6691
▁session	-10.6694
を入れ	-10.6699
▁での	-10.6703
属	-10.6706
基数	-10.6708
引	-10.6715
設定されます	-10.6717
カンマ	-10.6719
際の	-10.6722
He	-10.6729
例では	-10.6735
絶対値	-10.6742
最終	-10.6744
近	-10.6746
▁look	-10.6748
guido	-10.6749
する必要はありません	-10.675
ナ	-10.675
▁oct	-10.6751
かぎり	-10.6752
ながら	-10.6752
力	-10.6753
いずれかの	-10.6753
ディスク	-10.6753
LZMA	-10.6754
追	-10.6754
チ	-10.6754
まったく	-10.6754
テンプレート	-10.6754
ワーカープロセス	-10.6754
慣	-10.6754
を探す	-10.6754
を評価し	-10.6754
小さく	-10.6754
必ずしも	-10.6754
ACCES	-10.6754
Complex	-10.6754
DirEntry	-10.6754
GzipFile	-10.6754
Sequence	-10.6754
arithmetic	-10.6754
stuff	-10.6754
trick	-10.6754
tutorial	-10.6754
▁IEEE	-10.6754
▁StreamReader	-10.6754
▁netloc	-10.6754
メタパス	-10.6754
OMImplementation	-10.6754
PARSE	-10.6754
bacon	-10.6754
ウ	-10.6754
読み込んだ	-10.6754
音	-10.6754
Basic	-10.6754
ffffff	-10.6754
master	-10.6754
▁TextWrapper	-10.6754
▁capture	-10.6754
難	-10.6754
canonical	-10.6754
native	-10.6754
roken	-10.6754
▁CSV	-10.6754
ハードウェア	-10.6754
Event	-10.6754
とは限りません	-10.6754
コンパクト	-10.6754
交換	-10.6754
秘密鍵	-10.6754
▁4127	-10.6755
鍵	-10.6755
HUGE	-10.6755
Spam	-10.6755
取り除かれ	-10.6755
ズ	-10.6755
Meta	-10.6755
単項	-10.6755
新規	-10.6755
がサポートされました	-10.6755
が入った	-10.6755
乗算	-10.6755
が提供されています	-10.6755
▁ctx	-10.6755
prepare	-10.6755
▁SyntaxError	-10.6755
コア	-10.6755
シンボルテーブル	-10.6755
バッファリング	-10.6756
▁以降では	-10.6756
authenticated	-10.6756
読む	-10.6756
abcdef	-10.6757
ファイル記述子の指定	-10.6757
▁well	-10.6757
でもかまいません	-10.6758
);	-10.6758
正の数	-10.6759
▁Other	-10.676
USER	-10.676
スタックサイズ	-10.6762
▁cell	-10.6762
が適用されます	-10.6763
を取る	-10.6767
この関数の	-10.6767
詳細な	-10.6768
常に新しいオブジェクトを	-10.6769
▁'+'	-10.677
[2]	-10.6771
owner	-10.6771
▁currently	-10.6773
argtypes	-10.6774
▁と似ています	-10.6774
サブセット	-10.6777
▁All	-10.6778
gif	-10.6779
プロトコルバージョン	-10.678
▁のみ	-10.6784
これによって	-10.6786
を実装している	-10.6786
このオプションは	-10.6786
opera	-10.6787
rong	-10.679
キーワード専用引数	-10.6792
桁数	-10.6794
COR	-10.6794
stdev	-10.6794
setstate	-10.6797
▁web	-10.6798
('.')	-10.6798
開き	-10.68
検索されます	-10.68
getstate	-10.6801
に基づいて生成され	-10.6802
crc	-10.6802
▁[<	-10.6803
がなければ	-10.6803
par	-10.6804
されていなければ	-10.6811
▁18	-10.6811
▁<<	-10.6812
空間	-10.6812
ATE	-10.6815
matches	-10.6818
▁のペア	-10.6819
▁モジュールには	-10.682
判断	-10.6821
neg	-10.6824
であった場合	-10.6826
▁Netscape	-10.6829
に含まれている	-10.683
指定しない場合	-10.6833
アプリケーションに	-10.6833
▁keyfile	-10.6835
その場合	-10.6837
度に	-10.6838
▁netrc	-10.6839
ブロックする	-10.6851
サブプロセス	-10.6853
▁hashing	-10.6857
についての情報	-10.6875
バイトストリーム	-10.6875
ION	-10.6876
浮動小数点型	-10.6877
置き換えられます	-10.6883
▁blocks	-10.6884
グループが	-10.6886
('<	-10.6887
インポートシステム	-10.6887
の最後の	-10.6898
▁に設定されます	-10.69
反復処理	-10.6908
=2)	-10.6915
このドキュメント	-10.6916
形で	-10.6926
▁フォーマット済み文字列リテラル	-10.6927
▁way	-10.6928
を保存する	-10.6929
ことを表す	-10.6937
分け	-10.6939
完全	-10.6943
の別名	-10.6946
それ以上	-10.6948
場所に	-10.695
可能性がある	-10.6955
fromutc	-10.696
01,	-10.6961
近似	-10.6962
るのは	-10.6977
なくなります	-10.6979
現れ	-10.6983
実行します	-10.6991
を生成し	-10.6992
istic	-10.7001
▁'%'	-10.7003
▁のメソッド	-10.7008
た時に	-10.7011
をデコードし	-10.7013
▁モジュールに	-10.7016
の現在の	-10.7028
リストから	-10.7031
samples	-10.7032
▁2.6	-10.7043
▁too	-10.7052
ヘッダの	-10.7068
前後	-10.7075
▁machine	-10.7076
▁ChainMap	-10.7076
▁Status	-10.7077
クラスに	-10.7087
▁メソッドを持つ	-10.7091
は以下	-10.7093
pear	-10.7096
作成される	-10.7101
を使用してください	-10.7102
▁オブジェクトで	-10.7108
ek	-10.7111
▁メソッドを使って	-10.7115
api	-10.7116
▁rest	-10.712
に変更されました	-10.7123
display	-10.7127
-5	-10.7128
▁extend	-10.7131
にすることができます	-10.7136
空でない	-10.7138
を完全に	-10.7139
例外が発生し	-10.714
カレントディレクトリ	-10.7142
-16	-10.7143
~	-10.7145
mask	-10.7153
depth	-10.7154
extract	-10.7157
elem	-10.7157
stack	-10.7159
サポートされています	-10.716
strptime	-10.7161
mapping	-10.7161
just	-10.7162
step	-10.7163
Document	-10.7163
csv	-10.7167
binary	-10.7167
Node	-10.7167
を登録し	-10.7168
CA	-10.7168
Linux	-10.7169
オプションです	-10.717
enable	-10.7171
ttk	-10.7176
従	-10.7177
のリストです	-10.7177
で始まる	-10.7179
pprint	-10.7188
ident	-10.7188
now	-10.7191
pending	-10.7191
この機能	-10.7194
fileobj	-10.7199
を見つけ	-10.7199
▁0.1	-10.7203
成功した	-10.7204
▁節で	-10.7205
await	-10.7207
▁はその	-10.7207
閉じる	-10.7207
Popen	-10.7211
▁POINT	-10.7216
ローカルの	-10.7217
グループ化	-10.7224
▁'.'	-10.7229
クッキーを	-10.7229
▁gmtime	-10.723
以前は	-10.7234
なっています	-10.7243
中では	-10.7246
ようと	-10.7246
その値は	-10.7248
しないように	-10.7253
断	-10.7262
常	-10.7273
を使うか	-10.7276
weight	-10.7288
可能性	-10.7291
ba	-10.7296
として解釈され	-10.7298
に使用される	-10.73
バージョンでは	-10.7301
ものになります	-10.7309
エイリアス	-10.7313
ろ	-10.7316
ドキュメンテーション	-10.732
を一つ	-10.7321
!')	-10.7323
コマンドラインオプション	-10.7327
ust	-10.7333
理由で	-10.7333
マルチ	-10.7333
実効	-10.7335
特別	-10.7337
ラッパ	-10.7338
▁week	-10.734
減	-10.734
計	-10.7342
消費	-10.7342
結	-10.7342
やすい	-10.7342
新	-10.7342
開発	-10.7342
ボックス	-10.7342
ャ	-10.7342
悪	-10.7343
の概念	-10.7343
選	-10.7343
起こり	-10.7343
インターネット	-10.7343
根底にある	-10.7343
ね	-10.7343
クリーンアップ	-10.7343
早	-10.7343
WARNING	-10.7343
service	-10.7343
▁freeze	-10.7343
速度	-10.7343
Argument	-10.7343
Empty	-10.7343
Integral	-10.7343
Interpolation	-10.7343
SYNC	-10.7343
namespaceURI	-10.7343
primary	-10.7343
rotate	-10.7343
▁POLL	-10.7343
▁decorator	-10.7343
▁division	-10.7343
▁explicitly	-10.7343
▁generic	-10.7343
▁including	-10.7343
▁parrot	-10.7343
▁pickling	-10.7343
もちろん	-10.7343
を表わす	-10.7343
コンパイラ	-10.7343
役に立つ	-10.7343
載	-10.7343
COLOR	-10.7343
Rotating	-10.7343
▁EPOLL	-10.7343
▁に含まれるバイト値です	-10.7343
祖先	-10.7343
▁definition	-10.7343
波括弧	-10.7343
該当する	-10.7343
Entry	-10.7343
guess	-10.7343
今	-10.7343
製	-10.7343
ENCODING	-10.7343
ユーザ定義の	-10.7343
を含まない	-10.7343
▁typical	-10.7343
コンソール	-10.7343
未知の	-10.7343
地	-10.7343
添字表記	-10.7343
源	-10.7343
drive	-10.7343
▁ImportError	-10.7343
▁Codec	-10.7343
及び	-10.7343
上述の	-10.7343
追記	-10.7343
BabylMessage	-10.7343
DOWN	-10.7343
角括弧	-10.7343
sampleproject	-10.7343
substitute	-10.7343
乱数	-10.7344
▁IOError	-10.7344
性質	-10.7344
SERVER	-10.7344
▁byteorder	-10.7344
終了ステータス	-10.7344
▁capath	-10.7344
日曜日	-10.7344
Find	-10.7345
▁effective	-10.7345
指数部	-10.7345
plus	-10.7345
▁Found	-10.7345
urther	-10.7346
高さ	-10.7346
についての詳細は	-10.7346
wrapped	-10.7348
MaildirMessage	-10.7348
HI	-10.7349
▁6.5.	-10.7349
しなければならない	-10.735
urlencode	-10.735
lookup	-10.735
用語	-10.7351
pax	-10.7351
毎に	-10.7352
▁ロケールの	-10.7352
であっても	-10.7353
green	-10.7354
かなり	-10.7354
を続け	-10.7354
▁readinto	-10.7354
writeframes	-10.7355
▁once	-10.7355
利用できません	-10.7355
▁readable	-10.7355
▁以下の関数は	-10.7355
変数は	-10.7357
EDT	-10.7357
なり	-10.7357
=4)	-10.7359
spaces	-10.7361
を置き換える	-10.7362
することなく	-10.7367
IX	-10.7372
切れ	-10.7373
nder	-10.7375
出来ます	-10.7378
デコードされた	-10.738
値丸め	-10.738
login	-10.7381
▁below	-10.7387
myfile	-10.7388
▁mo	-10.7389
良いでしょう	-10.7391
readonly	-10.7391
▁updated	-10.7392
▁'0'	-10.7394
▁additional	-10.7394
空のリスト	-10.7399
したときに	-10.7402
への変換	-10.7403
managers	-10.7406
イテレータを返します	-10.7407
インスタンスに	-10.7409
設定できます	-10.7411
と共に	-10.7416
▁Mo	-10.7417
認証情報	-10.742
xff	-10.742
ペアの	-10.7433
に置き換え	-10.7434
書き込みが	-10.7439
これまで	-10.744
共有オブジェクト	-10.7448
文字列で返します	-10.7454
時刻を	-10.7454
が異なる	-10.7465
インポート機構	-10.747
されていれば	-10.7471
かどうか判	-10.7478
oo	-10.748
instance	-10.7485
subclass	-10.7491
▁変換	-10.7491
非標準	-10.7503
送り	-10.7513
説明する	-10.7515
by	-10.7516
トップレベル	-10.7517
▁exponent	-10.7526
▁descriptors	-10.7528
調べる	-10.7536
使われた	-10.754
フレーム数	-10.7554
サブクラスは	-10.7558
日時	-10.7559
+0	-10.7563
うる	-10.7566
ファイルシステムの	-10.7569
を取り出し	-10.7571
ることがあります	-10.7577
にすると	-10.7587
完了した	-10.7592
を選択します	-10.7593
げる	-10.7599
ily	-10.7599
▁中の	-10.7607
が行われる	-10.7623
を自動的に	-10.7626
ash	-10.7639
が推奨され	-10.7644
見える	-10.7648
certs	-10.7654
▁文が	-10.7666
の完全な	-10.7684
まり	-10.7685
を保持し	-10.7689
qu	-10.7689
残り	-10.7697
値になります	-10.7722
表示する	-10.7732
含まれる	-10.7739
support	-10.7757
manager	-10.7761
されており	-10.7763
効率的に	-10.7765
たものです	-10.7765
NODE	-10.7768
に分け	-10.7771
tic	-10.7773
定義する	-10.7781
第二	-10.7784
curses	-10.7785
keyword	-10.7793
コードを実行	-10.7803
これらのメソッドは	-10.7807
符号化	-10.7807
EM	-10.7814
している場合	-10.7815
{}	-10.7817
の終端	-10.7819
詳しく	-10.782
PATH	-10.7821
priority	-10.7825
に設定されます	-10.7825
ZipFile	-10.7831
割り当て	-10.7832
で使用する	-10.7832
▁messages	-10.7832
Fraction	-10.7834
JSON	-10.7835
OpenSSL	-10.7836
logging	-10.7837
tkinter	-10.7838
時間を	-10.7844
urllib	-10.7845
many	-10.7846
INT	-10.7849
▁33	-10.7851
出し	-10.7852
あれば	-10.7863
設定されている	-10.7867
レコードを	-10.787
を含む文字列	-10.7872
のどちら	-10.7877
▁6.1	-10.7878
ないので注意してください	-10.7885
十進	-10.7888
calculate	-10.7893
されるようになりました	-10.7898
contents	-10.7908
▁fail	-10.7915
通	-10.7916
ファイル名は	-10.7919
58	-10.792
初期値	-10.7922
を行って	-10.7934
void	-10.7938
ポーリング	-10.794
実行された	-10.7941
されたときに	-10.7941
を示し	-10.7946
lin	-10.7949
も構いません	-10.7959
利	-10.7961
づ	-10.7962
Some	-10.7963
オブジェクトを生成します	-10.7963
▁proto	-10.7965
div	-10.7965
kl	-10.7965
ごとの	-10.7965
規	-10.7966
なくなりました	-10.7966
Stream	-10.7966
フロー	-10.7966
interrupt	-10.7967
Number	-10.7967
面	-10.7967
Code	-10.7967
ぶ	-10.7967
author	-10.7967
否	-10.7967
区	-10.7967
権	-10.7967
PROCESS	-10.7967
ization	-10.7967
ーション	-10.7967
称	-10.7968
デリミタ	-10.7968
を停止	-10.7968
から始まり	-10.7968
欠	-10.7968
ADDR	-10.7968
BlockingIOError	-10.7968
CLIENT	-10.7968
DeclHandler	-10.7968
FileExistsError	-10.7968
Filter	-10.7968
Locator	-10.7968
TimeoutError	-10.7968
Unpickler	-10.7968
communicate	-10.7968
compatible	-10.7968
histfile	-10.7968
▁Previously	-10.7968
▁StatisticsError	-10.7968
▁cssclass	-10.7968
▁enumerate	-10.7968
▁signature	-10.7968
メニュー	-10.7968
Character	-10.7968
ContextVar	-10.7968
algorithm	-10.7968
variant	-10.7968
▁XMLParser	-10.7968
▁copyreg	-10.7968
▁shift	-10.7968
導入され	-10.7968
小さな	-10.7968
Client	-10.7968
LINK	-10.7968
▁DLL	-10.7968
Frame	-10.7968
keepends	-10.7968
▁separate	-10.7968
▁structure	-10.7968
カーネル	-10.7968
Weak	-10.7968
forward	-10.7968
RSA	-10.7968
サイト	-10.7968
直ちに	-10.7968
リダイレクト	-10.7968
2965	-10.7968
JavaScript	-10.7968
▁TextIOBase	-10.7968
traps	-10.7968
の一覧	-10.7968
▁metavar	-10.7968
2022	-10.7968
surrogateescape	-10.7968
▁imaplib	-10.7968
sql	-10.7968
▁8601	-10.7968
に関係なく	-10.7968
``	-10.7968
arcname	-10.7968
CRC	-10.7968
▁interpreter	-10.7968
▁heapq	-10.7969
最も近い	-10.7969
右側	-10.797
▁creation	-10.797
ハッシュアルゴリズム	-10.797
内側	-10.797
▁executor	-10.797
MMDFMessage	-10.797
▁以下の例では	-10.7971
変換が行われます	-10.7971
DIR	-10.7971
オーディオデバイス	-10.7971
condition	-10.7971
▁factor	-10.7972
PRI	-10.7972
に依存する	-10.7972
▁'?'	-10.7973
mycmd	-10.7973
MHMessage	-10.7974
▁background	-10.7974
Invalid	-10.7974
▁higher	-10.7975
現在のロケール	-10.7975
バイトオーダー	-10.7975
より大きい	-10.7976
construct	-10.7976
inner	-10.7976
ものと同じです	-10.7976
▁NameError	-10.7976
いずれも	-10.7977
▁Emax	-10.7977
recvmsg	-10.7977
によって異なります	-10.7978
パーサーは	-10.7978
より小さい	-10.7979
▁urlparse	-10.7979
どちら	-10.798
に対応しています	-10.798
でしょうか	-10.7984
負の数	-10.7987
比較演算子	-10.7987
▁と同様です	-10.7988
rfc	-10.7988
で表されます	-10.7989
人間	-10.7991
isdst	-10.7992
▁モジュールを参照してください	-10.7992
▁pointer	-10.7992
動的に	-10.7992
特殊属性	-10.7993
を特定する	-10.7993
▁needed	-10.7996
期間	-10.7997
ESMTP	-10.7998
問い合わせ	-10.8001
▁SSLError	-10.8002
というのは	-10.8003
ErrorHandler	-10.8003
そうでない場合には	-10.8007
▁rounding	-10.8007
lstat	-10.8008
▁メソッドを呼び出し	-10.801
名前付きタプル	-10.8017
単純に	-10.8017
TZ	-10.8019
forever	-10.802
空のタプル	-10.8022
に移動します	-10.8024
frames	-10.8032
を決め	-10.8035
▁ord	-10.8037
(7)	-10.8039
で書かれた	-10.8045
などです	-10.8048
"、"	-10.8053
書かれ	-10.8054
普通の	-10.8059
getE	-10.806
の読み込み	-10.806
itemsize	-10.8061
できるようになります	-10.8063
切り捨て	-10.807
▁エンコーディング	-10.8075
▁There	-10.8077
との互換性のため	-10.8078
▁の逆	-10.8078
パラメーター	-10.8087
▁と呼ばれる	-10.8092
ファイルモード	-10.8092
モジュール仕様	-10.8094
この制限	-10.8098
信頼	-10.81
エラーが発生した	-10.8101
"*"	-10.8102
に送	-10.8107
オプションの引数	-10.8112
式を	-10.8112
全ての要素	-10.8113
辞書型	-10.8124
▁'%	-10.8126
▁references	-10.8126
することも	-10.8135
呼び出されたとき	-10.8138
なもの	-10.8138
を構成する	-10.814
を送る	-10.8144
▁reading	-10.8149
ておき	-10.8153
CM	-10.8157
domains	-10.8159
与えられなかった場合	-10.8162
読め	-10.8163
た際に	-10.8175
変更されます	-10.8176
際に送出されます	-10.818
項目を	-10.8183
▁mm	-10.8186
▁{"	-10.8196
起動する	-10.8199
コマンドは	-10.8203
加えられ	-10.8215
追加される	-10.822
▁refer	-10.8224
近い	-10.8226
アプリケーションで	-10.8227
▁モジュールと	-10.8235
浮動小数点数の	-10.8238
されるかもしれません	-10.8239
文字にマッチします	-10.824
警告の	-10.8244
ウィジェットに	-10.8249
テキストを	-10.8256
accepted	-10.8258
処理され	-10.8268
オブジェクトとして	-10.8274
失敗する	-10.8275
の違い	-10.8276
63	-10.8281
た時	-10.8285
mag	-10.83
Un	-10.8301
実装されている	-10.8303
読み出	-10.8321
説明します	-10.833
{'	-10.8336
が使用され	-10.8337
無い	-10.8344
use	-10.8348
]]]	-10.835
ロガーに	-10.835
を受け取った	-10.8359
ウィンドウが	-10.8365
converter	-10.8366
imports	-10.8377
current	-10.838
▁streams	-10.8383
提供され	-10.8385
ないなら	-10.839
ったり	-10.8393
小文字の	-10.8394
オブジェクトを返す	-10.8395
内部の	-10.8402
される前に	-10.8403
STD	-10.8416
に依存して	-10.8417
たいなら	-10.842
の文字列表現	-10.8424
:80	-10.8446
Byte	-10.8449
すべきではありません	-10.8457
"{	-10.8465
オブジェクト型	-10.8471
一方で	-10.8473
このとき	-10.8484
どうし	-10.8486
インポート機構は	-10.8496
に存在し	-10.8499
メソッドを提供します	-10.85
Connection	-10.8502
に表示する	-10.8504
エラーが発生した場合	-10.8505
が提供する	-10.8506
それらを	-10.8511
newline	-10.8523
動的な	-10.8533
netrc	-10.8534
Context	-10.8534
行目	-10.8536
の使い方	-10.8539
fib	-10.854
how	-10.8543
Request	-10.8545
FOO	-10.8545
iterator	-10.8546
ユーザの	-10.8546
tty	-10.8546
shell	-10.8546
column	-10.8547
▁compute	-10.8548
▁のコンストラクタ	-10.8549
while	-10.855
deque	-10.8551
ともに	-10.8551
▁windows	-10.8558
モジュールオブジェクト	-10.8558
atime	-10.8562
uuid	-10.8564
ValueError	-10.8567
loggers	-10.8568
▁Modul	-10.8568
cipher	-10.8569
over	-10.857
4/	-10.8572
position	-10.8572
変	-10.8573
TypeError	-10.8574
るような	-10.8577
数は	-10.8582
されなかった	-10.8583
▁addition	-10.8587
キーワード専用	-10.8589
attributes	-10.8589
行数	-10.859
cat	-10.8591
ヘルプメッセージ	-10.8598
ton	-10.8599
locale	-10.8599
バック	-10.8601
serial	-10.8609
AP	-10.8611
よ	-10.8612
短縮	-10.8615
指定されている	-10.8619
Pickle	-10.862
を出力する	-10.8622
Logger	-10.8622
▁fix	-10.8623
secret	-10.8627
加	-10.8628
オ	-10.8628
番	-10.8631
様	-10.8631
ぎ	-10.8631
ncountered	-10.8632
ファミリ	-10.8632
字句	-10.8633
修	-10.8633
望	-10.8633
連	-10.8633
Open	-10.8633
サ	-10.8633
シリアライズ	-10.8634
メ	-10.8634
身	-10.8634
オフ	-10.8634
ポ	-10.8634
ステレオ	-10.8634
レート	-10.8634
ガ	-10.8634
さまざまな	-10.8634
タイトル	-10.8634
テーマ	-10.8634
低水準の	-10.8634
ピリオド	-10.8634
リトルエンディアン	-10.8634
有理数	-10.8634
Example	-10.8634
QUOT	-10.8634
ダミー	-10.8634
ノートブック	-10.8634
リファレント	-10.8634
自作の	-10.8634
CRITICAL	-10.8634
Header	-10.8634
Length	-10.8634
LookupError	-10.8634
Mutable	-10.8634
View	-10.8634
WRITE	-10.8634
black	-10.8634
cross	-10.8634
getpeer	-10.8634
lumberjack	-10.8634
resolution	-10.8634
▁FreeBSD	-10.8634
▁arbitrary	-10.8634
▁functionality	-10.8634
▁immediately	-10.8634
▁modulo	-10.8634
▁probability	-10.8634
▁writing	-10.8634
を読み込んで	-10.8634
暗黙の	-10.8634
ENTITY	-10.8634
numerator	-10.8634
panel	-10.8634
staticmethod	-10.8634
▁Panel	-10.8634
を再試行する	-10.8634
器	-10.8634
東	-10.8634
ADPCM	-10.8634
Label	-10.8634
Multi	-10.8634
detach	-10.8634
gnu	-10.8634
▁nested	-10.8634
▁nntplib	-10.8634
に影響し	-10.8634
を構築し	-10.8634
ヨーロッパ	-10.8634
浅いコピー	-10.8634
譲	-10.8634
preferred	-10.8634
ぼ	-10.8634
フレームワーク	-10.8634
大抵	-10.8634
could	-10.8634
mixer	-10.8634
スレッドセーフ	-10.8634
ファイナライザ	-10.8634
極	-10.8634
命	-10.8634
validate	-10.8634
を防ぐ	-10.8634
慣習	-10.8634
詳しい	-10.8634
そういった	-10.8634
▁4098	-10.8634
ケ	-10.8634
確実に	-10.8634
も同様です	-10.8634
NEWLINE	-10.8635
▁said	-10.8635
general	-10.8635
推測	-10.8635
収集	-10.8635
▁例外を送出する代わりに	-10.8635
場面	-10.8635
StreamWriter	-10.8635
あまり	-10.8635
▁nothing	-10.8635
を介して	-10.8635
▁report	-10.8635
正の整数	-10.8635
論理和	-10.8635
▁FileCookieJar	-10.8635
immutable	-10.8635
不可	-10.8635
▁1.1.0	-10.8635
バリア	-10.8635
▁docstring	-10.8635
字句解析	-10.8636
▁daemon	-10.8636
ライブラリーの	-10.8636
400	-10.8636
Programming	-10.8636
SPA	-10.8637
ビットマスク	-10.8637
▁DocumentType	-10.8637
コンストラクタはオプションの	-10.8637
atom	-10.8638
tended	-10.8638
トラップ	-10.8638
有用な	-10.8638
popleft	-10.8639
media	-10.8639
▁invoked	-10.864
▁stored	-10.864
NET	-10.864
▁cached	-10.864
dependent	-10.864
Eguido	-10.8641
fromiso	-10.8641
は決して	-10.8641
が空の場合	-10.8641
に入っている	-10.8642
▁DB	-10.8642
RAND	-10.8643
▁selection	-10.8643
▁モジュールでは以下の	-10.8644
ブロッキングモード	-10.8644
Domain	-10.8644
処理命令	-10.8645
途中	-10.8645
▁CDATA	-10.8646
見なされ	-10.8647
▁オフセットが	-10.8649
▁モジュールに含まれる	-10.865
提供されている	-10.8652
▁8000	-10.8652
行えます	-10.8652
pypi	-10.8652
よくある	-10.8653
ラップされた	-10.8654
リー	-10.8655
▁Any	-10.8655
していて	-10.8657
保存します	-10.8657
▁システムでは	-10.8659
ソートされた	-10.8662
失敗します	-10.8662
実行文	-10.8663
追加し	-10.8665
書き込まれます	-10.8665
等価性	-10.8666
を呼び出すこと	-10.8668
restype	-10.867
▁に渡された	-10.8676
メッセージ表現	-10.8677
2']	-10.8678
場合に便利です	-10.8679
ABLE	-10.868
ていなければ	-10.868
メソッドを持っています	-10.8681
を保持します	-10.8682
ロギングシステム	-10.8685
center	-10.8687
最上位の	-10.8688
使用してください	-10.869
FileType	-10.8691
▁give	-10.8692
下記の	-10.8695
▁がデフォルト	-10.8698
もまた	-10.8701
を無視し	-10.8702
▁はこの	-10.8708
weights	-10.8711
でサポートされている	-10.8713
realm	-10.8723
エラーになります	-10.8724
このクラスのインスタンス	-10.8725
と同じく	-10.8728
からなります	-10.8728
はなく	-10.8729
シーケンスの長さ	-10.8732
たいていは	-10.8743
▁changes	-10.8748
▁buffered	-10.8752
より多くの	-10.8757
名前空間パッケージ	-10.8758
接続先	-10.876
しようとすると	-10.8762
▁processed	-10.8763
オブジェクトを作成し	-10.8765
AST	-10.8768
ユーザに	-10.878
返され	-10.8786
printable	-10.8788
▁7.1	-10.8789
▁を使用	-10.8799
rev	-10.8799
Sun	-10.8805
▁fg	-10.8806
まとめ	-10.8812
参照対象	-10.8813
文字列中の	-10.882
呼び出し可能な	-10.8823
▁indicate	-10.8829
要素数	-10.883
を持た	-10.8832
の書式	-10.8836
syslog	-10.8837
制御文字	-10.8842
項目が	-10.8857
入り	-10.8859
この節	-10.8861
他にも	-10.8866
▁rel	-10.8868
ロードされた	-10.887
も同様に	-10.8872
形式です	-10.8874
---	-10.8879
("<	-10.8879
ble	-10.888
既	-10.888
なしに	-10.8882
ことも可能です	-10.8882
やや	-10.8884
ユーザーが	-10.8891
応	-10.8897
を要求する	-10.8899
ライブラリのバージョン	-10.8901
を作成して	-10.8903
completed	-10.891
することができ	-10.8922
generate	-10.8923
されるべき	-10.8931
設定して	-10.8935
った場合	-10.8937
[:]	-10.8938
82	-10.8943
方法があります	-10.8947
ときのみ	-10.895
二進	-10.8956
▁provid	-10.896
▁のデフォルトは	-10.8965
不可能	-10.8967
/10	-10.897
▁kwd	-10.8971
]+	-10.8977
以前に	-10.8978
から直接	-10.898
特定	-10.8981
ium	-10.8989
の比較は	-10.8991
で作成された	-10.8991
md	-10.8993
がセットされ	-10.8996
UF	-10.9007
を提供してい	-10.9015
(**	-10.9016
開かれた	-10.9019
派生した	-10.9025
全てを	-10.9026
AND	-10.9029
インタフェースは	-10.9035
クラス名	-10.9037
ことなく	-10.9038
もありません	-10.9043
(10,	-10.9043
2004	-10.9047
インスタンス属性	-10.9057
代わり	-10.9064
定義している	-10.9066
used	-10.9091
限定	-10.9096
dirname	-10.9098
ていた	-10.9102
mh	-10.9108
ていきます	-10.9117
扱	-10.9129
512	-10.9141
ことができません	-10.9143
▁を定義し	-10.9144
文字列でなければなりません	-10.9152
よって	-10.9152
つの引数	-10.9154
blocked	-10.9155
ることに注意してください	-10.9156
かまいません	-10.9162
IM	-10.9164
5')	-10.9167
を同時に	-10.9175
扱われます	-10.9176
pred	-10.9176
AG	-10.9177
が生成され	-10.9179
AES	-10.9184
同様の	-10.9203
の例です	-10.9209
▁affect	-10.9209
WN	-10.9209
してはいけません	-10.922
する必要がある場合	-10.9223
▁overrid	-10.9225
シンボリックリンクの	-10.9225
返し	-10.923
与	-10.9231
使うために	-10.9238
結果として	-10.9242
np	-10.9243
second	-10.9251
を使っている	-10.9253
2.5,	-10.9257
minute	-10.9265
スライス表記	-10.9268
コルーチン	-10.927
Option	-10.9271
を閉じ	-10.9287
と見なされます	-10.929
who	-10.9298
推	-10.9302
Object	-10.9303
heap	-10.9303
Raw	-10.9305
である場合に	-10.9308
reverse	-10.9309
Formatter	-10.9309
accept	-10.9309
defined	-10.9311
LOG	-10.9311
印字可能	-10.9312
dbm	-10.9312
include	-10.9312
reference	-10.9312
style	-10.9313
weakref	-10.9314
years	-10.9316
statement	-10.9318
even	-10.9322
001	-10.9323
を探し	-10.9329
いずれ	-10.933
▁manage	-10.9336
▁の返り値	-10.9338
大きく	-10.9339
のタプルを返します	-10.934
セキュア	-10.9342
例外が送出されます	-10.9343
予	-10.9345
広	-10.9345
収められ	-10.9346
存	-10.9347
欲	-10.9348
収	-10.9348
ルーチン	-10.9348
モノラル	-10.9348
比	-10.9348
元々の	-10.9348
symbol	-10.9349
シングル	-10.9349
提	-10.9349
制約	-10.9349
投	-10.9349
ファイル風オブジェクト	-10.9349
守	-10.9349
▁Pattern	-10.9349
告	-10.9349
弦	-10.9349
然	-10.9349
SCRIPT	-10.9349
やり方	-10.9349
余分な	-10.9349
起こる	-10.9349
AUDIO	-10.9349
Cursor	-10.9349
▁TIPC	-10.9349
▁asynchat	-10.9349
▁writable	-10.9349
のどれか	-10.9349
ターミナル	-10.9349
ビルトイン	-10.9349
ユニコード	-10.9349
副作用	-10.9349
BREAK	-10.9349
Comment	-10.9349
NONBLOCK	-10.9349
eyboardInterrupt	-10.9349
fficient	-10.9349
knights	-10.9349
prime	-10.9349
▁GMT	-10.9349
▁implicit	-10.9349
▁screen	-10.9349
▁supplied	-10.9349
▁xdrlib	-10.9349
さらなる	-10.9349
で始まり	-10.9349
キーストローク	-10.9349
セパレータ	-10.9349
分枝切断	-10.9349
脚	-10.9349
Factory	-10.9349
Load	-10.9349
Style	-10.9349
myprogram	-10.9349
ておいてください	-10.9349
キャスト	-10.9349
コンテンツ	-10.9349
水	-10.9349
SNI	-10.9349
handling	-10.9349
▁With	-10.9349
▁システムコールが中断され	-10.9349
新しく	-10.9349
国際化	-10.9349
skip	-10.9349
ヒント	-10.9349
リスナー	-10.9349
関連づけ	-10.9349
▁span	-10.9349
矢印	-10.9349
[-1]	-10.9349
YYY	-10.9349
細	-10.9349
HelpFormatter	-10.9349
RITY	-10.9349
スクロール	-10.9349
ドライブ	-10.9349
複合文	-10.9349
▁kind	-10.9349
を指定すれば	-10.9349
▁delta	-10.9349
異なった	-10.9349
price	-10.9349
TemporaryFile	-10.9349
basic	-10.9349
▁の範囲の整数	-10.9349
と同等です	-10.9349
シグナルハンドラが例外を送出しな	-10.9349
一時ファイル	-10.9349
swap	-10.9349
▁documentation	-10.9349
読み出せる	-10.9349
自分自身	-10.9349
▁creationflags	-10.9349
CRL	-10.9349
NOWAIT	-10.9349
▁6.4.	-10.9349
両端	-10.935
▁umask	-10.935
割り	-10.935
相手	-10.935
▁retrie	-10.935
▁fieldnames	-10.935
▁systemId	-10.935
framerate	-10.935
単なる	-10.935
▁finalizer	-10.935
またはそれ以上の	-10.935
用意されています	-10.935
free	-10.935
telnet	-10.9351
▁publicId	-10.9351
▁NodeList	-10.9351
GCM	-10.9351
secs	-10.9351
用意	-10.9351
収められています	-10.9351
▁dictConfig	-10.9351
列挙型メンバー	-10.9351
広く	-10.9352
サブパーサー	-10.9352
をセットします	-10.9352
▁3333	-10.9352
OPEN	-10.9353
をとります	-10.9353
mkdir	-10.9354
▁が呼ばれた	-10.9354
(42)	-10.9354
強く	-10.9355
[2:	-10.9355
▁textwrap	-10.9355
TEXT	-10.9355
▁'{:	-10.9356
firstweekday	-10.9356
ific	-10.9356
▁という形式の	-10.9356
longest	-10.9356
tabsize	-10.9357
HTTPStatus	-10.9359
issue	-10.9359
順番に	-10.9359
再開	-10.936
正常に	-10.936
▁Dog	-10.9361
▁によって返される	-10.9363
='?'	-10.9363
を行うための	-10.9364
execution	-10.9365
ファイルの読み書き	-10.9366
できなかった	-10.9368
一つ以上の	-10.9369
Mode	-10.937
▁actual	-10.937
▁はデフォルトで	-10.9371
▁filecmp	-10.9372
変換します	-10.9373
プロセスが終了	-10.9373
浮動小数点演算	-10.9376
forkserver	-10.9379
べきではありません	-10.9381
DER	-10.9385
最初の引数	-10.9385
印字	-10.9386
選択された	-10.9389
ようとします	-10.9392
によって生成された	-10.9394
▁Win	-10.9394
▁'*'	-10.9395
▁resources	-10.9396
▁occurs	-10.9396
下にある	-10.9396
01\	-10.9399
comptype	-10.9399
={}	-10.94
tagName	-10.94
更新されます	-10.9403
として使われる	-10.9407
▁2.1.	-10.9408
に対してのみ	-10.9408
関数を提供します	-10.9409
の計算	-10.9413
一文字	-10.9415
そこで	-10.9415
Options	-10.9416
を指してい	-10.9416
ful	-10.9417
論理行	-10.9418
現在のコンテキスト	-10.9419
インデントレベル	-10.9427
asctime	-10.9427
▁qname	-10.9428
ファイル形式	-10.9429
する必要	-10.943
表現できます	-10.9433
以下のようにします	-10.9434
parameters	-10.9437
-8859-1	-10.9439
を利用し	-10.9439
十進数	-10.9441
代入されます	-10.9442
が含まれている	-10.9446
十分な	-10.9449
取り除きます	-10.9468
を挿入し	-10.9468
▁rl	-10.9468
かれます	-10.9469
認証キー	-10.9478
がサポートしている	-10.9481
band	-10.9482
ることもできます	-10.9487
出力される	-10.9487
▁4.7	-10.949
ログメッセージ	-10.949
返されたオブジェクト	-10.9502
メソッドをオーバーライドする	-10.9503
受け付けます	-10.9503
▁2.7	-10.9506
RW	-10.9509
することを	-10.9519
が無い	-10.9523
ファイルディスクリプタ	-10.9523
▁recipe	-10.9523
アプリケーションでは	-10.9534
例外ハンドラ	-10.9535
preset	-10.9535
例外インスタンス	-10.9538
completer	-10.9539
の間で	-10.9541
インスタンスの属性	-10.9552
表示します	-10.9553
この例外	-10.9564
dog	-10.9566
▁tasks	-10.9567
▁メソッドが呼ばれ	-10.9568
相対パス	-10.9572
した後で	-10.9578
666	-10.9583
▁iterators	-10.9598
名前を持つ	-10.9608
▁tb	-10.9609
ようとし	-10.961
提供しています	-10.9611
ファイルに対して	-10.9616
た後に	-10.9626
例外処理	-10.9628
▁2.4	-10.9635
セ	-10.9641
テキストファイル	-10.9645
が失敗した場合	-10.965
含まれてい	-10.9653
▁9]	-10.9655
へのシンボリックリンク	-10.9664
▁pickled	-10.9684
関連	-10.9695
シグナルハンドラ	-10.9695
まれます	-10.9696
提供します	-10.9708
定数です	-10.9709
するために使われます	-10.9712
指定することができます	-10.9714
を開き	-10.9715
順序付け	-10.9717
selected	-10.9721
を比較し	-10.9722
と同じように解釈され	-10.9727
された名前	-10.9728
▁App	-10.9737
がない場合には	-10.9739
normalize	-10.9745
を起動し	-10.9746
データ型を	-10.9749
57	-10.9751
と同時に	-10.9755
が追加され	-10.9756
IGN	-10.9758
呼びます	-10.9764
▁2.5	-10.9764
に置換	-10.9765
した時に	-10.9773
コードでは	-10.9776
回の	-10.9782
=<	-10.979
ファイルに保存	-10.9798
を返した場合	-10.9808
たい場合は	-10.9826
2008	-10.9831
{0}	-10.9848
infile	-10.985
▁Inter	-10.9853
整数型	-10.9872
変更された	-10.9876
をコピーし	-10.9878
ませんでした	-10.9883
オブジェクトの属性	-10.9902
を送り	-10.9902
入力ストリーム	-10.9904
に用いられる	-10.9905
以外は	-10.9907
インスタンスメソッド	-10.9909
ていません	-10.9922
をとる	-10.9925
DEF	-10.9927
後方互換性	-10.9932
maps	-10.9943
を実装し	-10.9943
が使用する	-10.9972
matching	-10.9975
に置き換えられます	-10.9978
つのメソッド	-10.9981
フィールド名	-11.0002
マシンの	-11.0007
▁と呼ばれ	-11.0009
El	-11.0012
変更可能なオブジェクト	-11.0021
メソッド名	-11.003
に失敗した	-11.0033
インターフェースを提供し	-11.0034
ND	-11.0059
▁Write	-11.0065
stem	-11.0068
back	-11.0068
になってい	-11.0071
を問い合わせ	-11.0077
84	-11.0078
処理を行う	-11.0086
自分	-11.0088
normal	-11.0092
に似ています	-11.0093
▁own	-11.0094
▁Format	-11.0096
に保存され	-11.0099
とみなされ	-11.0099
深	-11.0103
▁Whe	-11.0104
型オブジェクト	-11.0106
例外として	-11.0108
▁small	-11.0112
roduce	-11.0112
Function	-11.0113
ポイント	-11.0113
このフラグ	-11.0114
Select	-11.0114
COM	-11.0114
遅	-11.0115
Socket	-11.0115
同一性	-11.0116
ステータス	-11.0116
izing	-11.0116
平	-11.0116
possibl	-11.0117
話	-11.0117
やすく	-11.0117
roll	-11.0117
句	-11.0118
bug	-11.0118
Operation	-11.0118
未定義	-11.0118
を使えば	-11.0118
率	-11.0118
コンピュータ	-11.0118
役に立ちます	-11.0118
に遭遇した	-11.0118
を捕捉	-11.0118
を構築する	-11.0118
▁webbrowser	-11.0118
ビッグエンディアン	-11.0118
ioctl	-11.0118
remainder	-11.0118
割り込み	-11.0118
孫	-11.0118
描画	-11.0118
Before	-11.0118
CLASS	-11.0118
External	-11.0118
FROM	-11.0118
Method	-11.0118
Monty	-11.0118
TASKS	-11.0118
XYZ	-11.0118
compatibility	-11.0118
declaration	-11.0118
pathsegments	-11.0118
→	-11.0118
▁according	-11.0118
▁日本語	-11.0118
ロールオーバ	-11.0118
NORMAL	-11.0118
badger	-11.0118
quick	-11.0118
robots	-11.0118
sampwidth	-11.0118
▁consist	-11.0118
▁novas	-11.0118
▁squares	-11.0118
と一緒に	-11.0118
仕組み	-11.0118
BasicAuthHandler	-11.0118
REQUEST	-11.0118
exposed	-11.0118
rmtree	-11.0118
セレクタ	-11.0118
ペイン	-11.0118
曲線	-11.0118
▁evaluate	-11.0118
経由で	-11.0118
female	-11.0118
で終わる	-11.0118
トランザクション	-11.0118
暗黙に	-11.0118
言えば	-11.0118
Book	-11.0118
plain	-11.0118
▁lead	-11.0118
ロックを解放し	-11.0118
等価比較	-11.0118
電子メール	-11.0118
RGB	-11.0118
spawnlp	-11.0118
選ばれ	-11.0118
プロセッサ	-11.0118
mixed	-11.0118
未満の	-11.0118
発信	-11.0118
規格	-11.0118
▁Otherwise	-11.0118
増加	-11.0118
widget	-11.0118
region	-11.0118
減算	-11.0118
▁omitted	-11.0118
mgr	-11.0118
▁heappush	-11.0118
呼出し	-11.0118
▁FileNotFound	-11.0118
のように振る舞います	-11.0118
混合	-11.0119
付加	-11.0119
非ゼロの	-11.0119
mutable	-11.0119
考慮すべき	-11.0119
イミュータブルなシーケンス	-11.0119
読んだ	-11.0119
sigmask	-11.0119
▁copytree	-11.0119
開いて	-11.0119
無限大	-11.0119
▁gdbm	-11.0119
発生させる	-11.012
良く	-11.012
▁poplib	-11.012
StreamHandler	-11.012
変更不能な	-11.012
ency	-11.012
casefold	-11.0121
に属する	-11.0121
月曜日	-11.0121
multiprocess	-11.0121
に達した	-11.0121
シェルフ	-11.0121
信頼できない	-11.0121
よいでしょう	-11.0121
プラットフォーム依存	-11.0121
もしあれば	-11.0121
gree	-11.0122
proper	-11.0122
nowait	-11.0122
スタックフレーム	-11.0122
開始タグ	-11.0123
安全ではありません	-11.0123
▁Emin	-11.0123
BUF	-11.0123
ファイルを開く	-11.0124
▁performed	-11.0124
およそ次	-11.0124
▁${	-11.0125
を継承しています	-11.0125
リスト内包表記	-11.0125
っており	-11.0125
を持ちません	-11.0126
▁whence	-11.0126
▁turn	-11.0127
2109	-11.0127
ローカル名前空間	-11.0127
▁endpos	-11.0127
▁thing	-11.0127
CHE	-11.0128
クロック	-11.0128
Get	-11.0129
que	-11.0129
male	-11.013
最終的に	-11.0131
が見つからなかった場合	-11.0132
▁fixed	-11.0132
▁文字とは	-11.0132
FOR	-11.0132
BLOCK	-11.0134
▁filesystem	-11.0135
ConfigParser	-11.0136
▁を与える場合	-11.0136
▁cut	-11.0139
を探します	-11.0139
を知る	-11.014
myarg	-11.014
▁links	-11.014
chdir	-11.0141
ユーザ名	-11.0141
Start	-11.0141
ビットマップ	-11.0142
他のスレッドが	-11.0142
delitem	-11.0143
▁sever	-11.0145
generator	-11.0148
zero	-11.0149
limited	-11.015
生ストリーム	-11.0151
を出力します	-11.0151
after	-11.0151
関数群	-11.0151
▁ポーリングオブジェクト	-11.0152
上の例では	-11.0153
変換されます	-11.0154
PEP	-11.0154
bytearray	-11.0157
gate	-11.0157
▁で定義されています	-11.0158
.7.	-11.0164
を受け付ける	-11.0167
にしてください	-11.0169
関数を提供しています	-11.0171
をサポートしていません	-11.0172
文字セット	-11.0173
を強制し	-11.0175
を指定すること	-11.0175
かれ	-11.018
高レベル	-11.0181
eof	-11.0182
▁パスが	-11.0183
▁で指定した	-11.0185
listen	-11.0187
継承可能	-11.0189
を変更すると	-11.0189
unregister	-11.019
フォーマット文字	-11.0191
formatting	-11.0194
Module	-11.0195
キューから	-11.0208
引数の型	-11.0211
内部的に	-11.0212
foobar	-11.0215
▁で返される	-11.0215
ML	-11.0217
▁はオプションで	-11.0224
属性アクセス	-11.0227
削除します	-11.0228
**2	-11.0229
になるように	-11.023
power	-11.0237
圧縮形式	-11.0239
安全に	-11.024
丸めます	-11.0241
と考えられ	-11.0242
で表され	-11.0244
same	-11.0246
00000	-11.0251
見え	-11.0254
=42	-11.0259
▁handled	-11.0273
▁'%(	-11.0273
▁に変更し	-11.0275
sendfile	-11.0278
初期化された	-11.0279
見る	-11.028
を試みる	-11.0284
が有効な	-11.0286
▁2.2	-11.029
▁mp	-11.0292
この仕様	-11.0293
ために使われる	-11.0299
その後に	-11.0304
ポインタ型	-11.0318
適	-11.0319
一般的には	-11.0321
順序比較	-11.0322
▁2}	-11.0325
対話的に	-11.0333
▁itself	-11.0335
▁require	-11.0339
BA	-11.0344
▁quotes	-11.0345
入力データ	-11.0357
扱え	-11.0359
までブロック	-11.0365
終了した	-11.0374
連続した	-11.0375
('%	-11.0379
MIN	-11.0384
をクローズし	-11.0385
going	-11.0398
を行うために	-11.0404
timespec	-11.0407
0.7	-11.0426
▁関数を使って	-11.0426
を定義して	-11.044
呼び出し側の	-11.0449
この引数は	-11.0465
をサポートしていない	-11.0484
を送信し	-11.0485
使えるように	-11.0488
}.'	-11.0492
("%	-11.0503
をどのように	-11.0534
値を返し	-11.0536
なってしまいます	-11.0536
メソッドを持ちます	-11.0543
tree	-11.0544
NER	-11.0547
に使用する	-11.055
るべきです	-11.056
コマンドラインから	-11.0567
To	-11.0586
アクティブな	-11.0586
ようにしてください	-11.0594
初期	-11.06
それらが	-11.06
一行	-11.0608
呼び出し側	-11.0616
を保証する	-11.0617
バイナリファイル	-11.0632
060	-11.0635
要素を選択します	-11.0642
抑制	-11.0647
読み込む	-11.0665
更新され	-11.0669
abcd	-11.0676
(['-	-11.0677
トレースバックを	-11.0677
ミュータブルなシーケンス	-11.0679
受け付けられ	-11.0689
高水準	-11.0691
取得した	-11.0693
構いません	-11.0693
はサポートされていません	-11.07
なかったり	-11.0704
typeid	-11.071
そこに	-11.0721
1252	-11.073
ところで	-11.0733
適してい	-11.0733
として定義され	-11.0739
と異なり	-11.0751
文字数	-11.0754
関数を呼び出す	-11.0766
型コード	-11.0781
dest	-11.0796
受け付け	-11.0805
ことができない	-11.0812
を表し	-11.0818
与えられます	-11.0824
dist	-11.0825
使う場合	-11.0831
てきた	-11.0837
ようとすると	-11.0842
ることを意味します	-11.0845
例外が発生した	-11.0859
することによって	-11.0863
▁know	-11.0865
(1000	-11.0868
することができません	-11.0871
▁comput	-11.0877
TAB	-11.0894
▁-4	-11.0901
egg	-11.0902
を格納し	-11.0903
302	-11.0908
小	-11.0914
見つからなければ	-11.0923
番目	-11.0924
オプション文字列	-11.0927
etter	-11.093
総	-11.093
達	-11.0934
見つからなかった	-11.0936
一つだけ	-11.0939
certificat	-11.0941
短	-11.0942
ject	-11.0942
関	-11.0943
具体的	-11.0944
8]	-11.0945
ABCD	-11.0945
ECDH	-11.0946
▁符号付き	-11.0947
速	-11.0947
キ	-11.0947
同名の	-11.0948
リング	-11.095
混	-11.095
プリミティブ	-11.0951
失	-11.0951
SPACE	-11.0951
Index	-11.0951
カレンダー	-11.0951
読み込み専用	-11.0951
を削除すること	-11.0951
に渡って	-11.0951
と違い	-11.0951
のに役立ちます	-11.0951
bucket	-11.0951
ソフトウェア	-11.0951
フォント	-11.0951
折り返し	-11.0951
lementsByTagName	-11.0951
▁fruits	-11.0951
からの相対位置	-11.0951
デッドロック	-11.0951
潜在的	-11.0951
FloatOperation	-11.0951
RIGHT	-11.0951
SELECT	-11.0951
STARTUPINFO	-11.0951
VERSION	-11.0951
increment	-11.0951
周	-11.0951
標準型の階層	-11.0951
透過的に	-11.0951
BufferedReader	-11.0951
CDLL	-11.0951
Condition	-11.0951
DivisionByZero	-11.0951
Ellipsis	-11.0951
Jack	-11.0951
MAXYEAR	-11.0951
MINYEAR	-11.0951
capital	-11.0951
comprehension	-11.0951
fictional	-11.0951
ibonacci	-11.0951
spacious	-11.0951
visible	-11.0951
▁4096	-11.0951
▁AssertionError	-11.0951
▁Convert	-11.0951
▁Language	-11.0951
▁hdrs	-11.0951
▁ncols	-11.0951
▁problem	-11.0951
▁silent	-11.0951
▁モジュールが利用可能な場合	-11.0951
こちら	-11.0951
と違って	-11.0951
は含まれません	-11.0951
を消去します	-11.0951
レシピ	-11.0951
ワイルドカード	-11.0951
位置専用引数	-11.0951
当てはまります	-11.0951
役立つ	-11.0951
Barrier	-11.0951
chown	-11.0951
integral	-11.0951
▁XDR	-11.0951
サーバサイド	-11.0951
奇	-11.0951
CTRL	-11.0951
あらかじめ	-11.0951
に相当します	-11.0951
並べ替え	-11.0951
HELO	-11.0951
sharedctypes	-11.0951
とは違い	-11.0951
後続の	-11.0951
▁identify	-11.0951
合わせ	-11.0951
物理行	-11.0951
ぐ	-11.0951
abort	-11.0951
▁SimpleQueue	-11.0951
▁down	-11.0951
コンプレッサ	-11.0951
主要な	-11.0951
支	-11.0951
ならびに	-11.0951
バックグラウンド	-11.0951
真理値	-11.0951
変わる	-11.0951
既知の	-11.0951
▁euc	-11.0951
に従う	-11.0951
ランタイム	-11.0951
MODE	-11.0951
Work	-11.0951
各々の	-11.0951
問	-11.0951
Row	-11.0951
ユーザ定義関数	-11.0951
暗黙のうちに	-11.0951
anchor	-11.0951
ある種の	-11.0951
New	-11.0951
このルーチンは	-11.0951
▁HOUR	-11.0951
annotations	-11.0951
の集まり	-11.0951
読み取る	-11.0952
rmdir	-11.0952
チャ	-11.0952
コンマ	-11.0952
言い換えると	-11.0952
touch	-11.0952
リストや辞書	-11.0952
rowser	-11.0952
入れ子になった	-11.0952
小文字を区別し	-11.0952
translate	-11.0952
決められ	-11.0952
▁treat	-11.0952
とも呼ばれます	-11.0952
LZMAFile	-11.0952
覚え	-11.0952
▁RECT	-11.0952
▁QueueManager	-11.0953
可能性のある	-11.0953
偶数	-11.0953
▁サブクラスのインスタンス	-11.0953
▁次の例では	-11.0953
▁6.3.	-11.0953
ライン	-11.0953
▁ftplib	-11.0953
で実装された	-11.0953
▁SSLObject	-11.0953
所有者	-11.0953
が入ります	-11.0953
▁sigwait	-11.0953
指数表記	-11.0953
を指していた場合	-11.0953
系列	-11.0953
▁sigma	-11.0953
mouse	-11.0954
書き出され	-11.0954
減ら	-11.0954
Mozilla	-11.0954
padding	-11.0954
▁colorsys	-11.0954
同等	-11.0954
▁useful	-11.0954
左側	-11.0955
Users	-11.0955
あたり	-11.0955
誤った	-11.0955
不明な	-11.0956
RawConfigParser	-11.0956
読み取り	-11.0956
が存在しなければ	-11.0956
事実	-11.0956
参照している	-11.0956
を指します	-11.0957
ローカルスコープ	-11.0957
▁describ	-11.0958
割り当てられた	-11.0958
ナー	-11.0958
throw	-11.0958
▁typing	-11.0958
▁fast	-11.0958
1970	-11.0958
▁マッチオブジェクト	-11.0959
メソッドを呼び出して	-11.0959
▁BIO	-11.0959
ディング	-11.096
▁warnings	-11.096
▁WIF	-11.0961
▁replaced	-11.0961
lice	-11.0961
を渡すことができます	-11.0961
XHTML	-11.0961
説明されています	-11.0961
主な	-11.0962
▁オブジェクトを作成して	-11.0962
有効化	-11.0963
と等価	-11.0963
も提供しています	-11.0963
現在のところ	-11.0964
共有メモリ	-11.0964
wide	-11.0964
=5)	-11.0964
▁vec	-11.0965
に達する	-11.0965
ファイルシステムパス	-11.0966
カスタマイズできます	-11.0966
モジュールの名前空間	-11.0966
▁であるような	-11.0967
▁received	-11.0967
▁normally	-11.0967
OFF	-11.0967
掛け	-11.0968
を含んでいます	-11.0968
writerow	-11.0968
代入文	-11.0969
へのポインタ	-11.0969
変数名	-11.097
バッファサイズ	-11.097
▁対話モード	-11.0971
を変更できます	-11.0971
384	-11.0971
永続的な	-11.0972
多い	-11.0972
▁save	-11.0974
▁以下のメソッドは	-11.0974
部分集合	-11.0974
awaitable	-11.0975
しようと試み	-11.0975
ことのできる	-11.0975
sure	-11.0976
REF	-11.0976
▁属性として	-11.0977
場合によっては	-11.0977
unknown	-11.0977
取得できます	-11.0979
バイト数を返します	-11.0981
を超えた	-11.0981
構成されます	-11.0982
822	-11.0982
bitmap	-11.0984
つけ	-11.0986
は以下のようになります	-11.0992
▁のエイリアス	-11.0994
メモリバッファ	-11.0994
▁SO	-11.0995
重要です	-11.0997
待ちます	-11.0997
非同期イテレータ	-11.0999
読み込まれます	-11.0999
(201	-11.1
GID	-11.1003
最初の文字	-11.1003
選択されます	-11.1006
▁defaultdict	-11.1009
▁"**	-11.1015
WIN	-11.1016
後者は	-11.1016
そのモジュール	-11.1016
これ以上	-11.1019
文字エンコーディング	-11.1024
binding	-11.1026
計算されます	-11.1028
asynchronous	-11.1034
▁3.14	-11.1039
リストについては	-11.1039
session	-11.1044
EV	-11.1047
パターン中	-11.1048
Expat	-11.1048
change	-11.1049
compare	-11.1051
work	-11.1051
▁BC	-11.1052
precision	-11.1053
relative	-11.1057
interval	-11.1058
bufsize	-11.1059
fold	-11.106
▁separators	-11.106
follow	-11.1061
定義してい	-11.1061
12\	-11.1061
Namespace	-11.1062
window	-11.1062
initial	-11.1063
▁details	-11.1066
finally	-11.1066
に分割し	-11.107
terminate	-11.1071
custom	-11.1071
DST	-11.1075
▁のメッセージを	-11.1076
異なる型の	-11.108
初期の	-11.1083
の各要素	-11.1086
を生成した	-11.1088
▁followed	-11.1095
▁で与えられた	-11.11
extended	-11.11
種類	-11.1101
メソッドを使う	-11.1106
クエリ文字列	-11.111
きません	-11.1112
を判定し	-11.1118
が終わ	-11.1122
this	-11.1129
必要であれば	-11.1129
二つ目	-11.1135
が必要なら	-11.1142
の上に	-11.1143
要素の属性	-11.1146
中間	-11.1154
fun	-11.1155
hint	-11.1155
PID	-11.1161
使われてい	-11.1168
それ以降	-11.1173
taff	-11.1176
時に自動的に	-11.1182
文字参照	-11.1185
満たす	-11.1192
の一部です	-11.1192
丸めモード	-11.1199
FER	-11.1203
クラスの名前空間	-11.1218
finite	-11.122
'|'	-11.122
のインスタンスを	-11.1223
ないとき	-11.1245
]]]]	-11.125
を区別	-11.1253
ことを示す	-11.1261
EXT	-11.1264
これらの属性	-11.1266
何が	-11.1272
詳細については	-11.1287
2000	-11.1288
開かれたファイル	-11.1292
firstname	-11.1299
starting	-11.1304
保存されます	-11.1308
3'.	-11.1313
testing	-11.1322
変換関数	-11.1325
▁6.2.	-11.1327
設定されていない場合	-11.1332
適用される	-11.1333
動作をする	-11.134
Flag	-11.1342
ストリームから	-11.1344
外側	-11.1347
検索します	-11.1356
にある場合	-11.1365
サポートしています	-11.1368
引数を受け取る	-11.138
が削除され	-11.1384
issubclass	-11.1406
▁indicat	-11.1416
FE	-11.1444
を管理する	-11.1447
次の例	-11.1458
ゼロでない値を返	-11.1467
コルーチン関数	-11.1468
を記述し	-11.147
rator	-11.1486
として扱われ	-11.15
されることはありません	-11.1507
の詳細については	-11.1518
subelement	-11.1518
無しに	-11.1531
と同様の	-11.1538
tial	-11.1539
VI	-11.1549
型に対して	-11.1551
の解釈	-11.1566
トップレベルの	-11.1578
スキップ	-11.1585
NOP	-11.1593
実行している	-11.1634
でサポートされています	-11.1638
等しくない	-11.1639
バージョン番号	-11.1654
変更することができます	-11.1654
に現れる	-11.166
rag	-11.1666
ることも	-11.1668
を確認する	-11.167
たとしても	-11.1672
にキャッシュされ	-11.1687
必要なら	-11.1695
起きた	-11.1703
を格納する	-11.1707
reparse	-11.1709
してはなりません	-11.1731
集合型	-11.1737
ことにより	-11.1741
として渡されます	-11.1746
使いたい	-11.176
下記	-11.178
関連付けられた	-11.1789
最上位	-11.179
ページを参照してください	-11.1794
通りに	-11.1802
builtin	-11.1819
のサブセット	-11.1827
near	-11.1833
サポートされる	-11.1835
に出力します	-11.1836
新しいプロセス	-11.184
扱える	-11.185
dication	-11.1853
詳しい情報は	-11.1855
▁exact	-11.1855
が設定され	-11.1855
前述の	-11.1857
破棄され	-11.1858
に注意して下さい	-11.1859
辺	-11.1859
事項	-11.186
スケジューリングポリシー	-11.186
純	-11.186
play	-11.186
覧	-11.186
モ	-11.186
スケジューラ	-11.186
ダブル	-11.186
ポリシー	-11.186
サンプリングレート	-11.186
典型的に	-11.186
共用体	-11.186
整数初期化子を受け取ります	-11.186
判別	-11.186
起こさ	-11.186
適当な	-11.186
Result	-11.186
セマンティクス	-11.186
自由変数	-11.186
責任	-11.186
過去の	-11.186
▁CERTIFICATE	-11.186
アスタリスク	-11.186
フレーバー	-11.186
沿	-11.186
BoundedSemaphore	-11.186
Coordinate	-11.186
bottom	-11.186
contiguous	-11.186
pseudo	-11.186
▁Attr	-11.186
▁kevent	-11.186
▁フラグが使われているなら	-11.186
プライマリ	-11.186
入れ替え	-11.186
可搬性	-11.186
整列化	-11.186
Authentication	-11.186
BEGIN	-11.186
CIRCLE	-11.186
Check	-11.186
Eastern	-11.186
Isaac	-11.186
PACKET	-11.186
Period	-11.186
Semaphore	-11.186
Treeview	-11.186
UNKNOWN	-11.186
anonymous	-11.186
choose	-11.186
frobble	-11.186
garbage	-11.186
guarantee	-11.186
language	-11.186
little	-11.186
mechanism	-11.186
private	-11.186
propagate	-11.186
▁Standard	-11.186
▁backupCount	-11.186
▁entire	-11.186
▁topdown	-11.186
うるう秒	-11.186
にかかわらず	-11.186
ソ	-11.186
進数で表記した	-11.186
First	-11.186
Generator	-11.186
track	-11.186
▁clean	-11.186
▁leaf	-11.186
を期待	-11.186
国	-11.186
歴史	-11.186
validator	-11.186
▁later	-11.186
▁rollover	-11.186
▁virtual	-11.186
と仮定され	-11.186
ショートカット	-11.186
スクロールバー	-11.186
母	-11.186
ceil	-11.186
▁network	-11.186
粋	-11.186
FAQ	-11.186
Normal	-11.186
▁で記述されている	-11.186
レイヤー	-11.186
むしろ	-11.186
損	-11.186
が省略されるか	-11.186
ジェクト	-11.186
▁Resource	-11.186
固定長の	-11.186
spawnvp	-11.186
UDP	-11.186
電	-11.186
▁disk	-11.186
スキーマ	-11.186
▁rules	-11.186
に合わせて	-11.186
世界	-11.186
dumb	-11.186
What	-11.186
累算代入	-11.186
optimize	-11.186
切断	-11.186
を行わない	-11.186
▁devpoll	-11.186
マイクロ秒	-11.186
shape	-11.186
NotSupportedErr	-11.1861
取り出せ	-11.1861
本当に	-11.1861
▁special	-11.1861
▁starmap	-11.1861
NAMESPACE	-11.1861
▁tee	-11.1861
▁Here	-11.1861
▁bpo	-11.1861
▁environment	-11.1861
同期プリミティブ	-11.1861
▁[","]	-11.1861
ここに	-11.1861
変種	-11.1861
▁transaction	-11.1861
▁TLSVersion	-11.1861
は存在しません	-11.1861
▁inspect	-11.1861
▁compact	-11.1861
▁macOS	-11.1861
▁capability	-11.1861
embe	-11.1862
検査	-11.1862
権限を持っている	-11.1862
Collection	-11.1862
▁groupby	-11.1862
てみましょう	-11.1862
▁issuer	-11.1862
アンロック状態	-11.1862
べき乗	-11.1862
開発者	-11.1862
card	-11.1862
▁writeback	-11.1862
もう一方	-11.1862
▁Remove	-11.1862
に格納されます	-11.1862
▁installed	-11.1862
一様	-11.1863
defghi	-11.1864
▁necessary	-11.1864
倍精度	-11.1864
読み込み用に	-11.1864
レガシーな	-11.1864
非ブロッキングモード	-11.1864
singledispatch	-11.1865
DTDHandler	-11.1865
▁関数が返す	-11.1865
ソケットのタイムアウト	-11.1865
ものではありません	-11.1866
より詳しい情報は	-11.1866
がサポートする	-11.1866
対象となる	-11.1866
サブタイプ	-11.1866
引数として渡された	-11.1866
個以上の	-11.1866
を渡すことで	-11.1867
ellow	-11.1868
終了タグ	-11.1868
TIMER	-11.1868
ラムダ式	-11.1868
heappop	-11.1869
みてください	-11.1869
debuglevel	-11.1869
273	-11.1869
を元に	-11.1869
▁generated	-11.1869
LOW	-11.187
▁fact	-11.187
▁ExpatError	-11.187
より詳細な	-11.187
続く	-11.187
▁openssl	-11.187
QName	-11.1872
について記述し	-11.1872
jpg	-11.1872
の現在位置	-11.1873
負数	-11.1873
Zip	-11.1874
▁atexit	-11.1874
USR	-11.1874
decl	-11.1874
への対応付け	-11.1875
▁wave	-11.1877
parseString	-11.188
標準の値は	-11.188
させることができます	-11.1881
を検出する	-11.1881
あとで	-11.1881
返される値は	-11.1883
システム識別子	-11.1885
チャンネル数	-11.1885
ケースでは	-11.1886
より長い	-11.1886
てしま	-11.189
▁という名前で	-11.189
▁インスタンスは以下のメソッド	-11.1892
とは異なる	-11.1892
▁backward	-11.1892
可能に	-11.1896
▁109	-11.1896
を必要とします	-11.1898
インデックス指定	-11.1901
を作成するために	-11.1902
▁が指定されていない場合	-11.1905
デフォルトの動作	-11.1907
142857142857	-11.191
▁オーディオファイル	-11.1915
HIGH	-11.1915
-09	-11.192
したければ	-11.1922
grap	-11.1923
等しくな	-11.1924
▁4]	-11.1935
"..."	-11.1937
とおり	-11.1937
を変更します	-11.1938
▁resize	-11.1941
▁seed	-11.1944
ておか	-11.1945
href	-11.195
625	-11.195
▁関数によって	-11.195
知っている	-11.195
次のようにします	-11.1951
IR	-11.1956
エンコードされます	-11.1959
の対応付け	-11.1962
条件変数	-11.1963
ことになるでしょう	-11.1967
属性があります	-11.1968
結果になります	-11.1969
引数として渡されます	-11.1976
ルート要素	-11.198
モジュール内の	-11.1991
どちらも	-11.1992
にエンコードする	-11.1993
組み込みモジュール	-11.1993
ファイルサイズ	-11.1994
complete	-11.2009
▁force	-11.2013
現在のディレクトリ	-11.2016
pass	-11.2024
timer	-11.2031
valid	-11.2032
validation	-11.2036
outer	-11.204
extend	-11.2042
'3']	-11.2043
BufferedIOBase	-11.2046
SharedMemory	-11.2046
negative	-11.2047
standard	-11.2048
scope	-11.2048
bisect	-11.2049
family	-11.2052
initializer	-11.2053
control	-11.2054
WSGI	-11.2058
auto	-11.2058
access	-11.2059
atan	-11.2059
gmtime	-11.206
available	-11.2061
IMAP	-11.2062
POINT	-11.2062
page	-11.2064
usage	-11.2065
zlib	-11.2066
exe	-11.2071
サーバープロセス	-11.2072
存在	-11.2073
classmethod	-11.2075
与えられていない場合	-11.2077
Read	-11.2077
▁Packag	-11.208
proc	-11.2087
zipfile	-11.2088
エスケープ文字	-11.2089
に用い	-11.2097
文字列の長さ	-11.2099
そのサブクラス	-11.21
構文エラー	-11.2109
IE	-11.2113
ベースクラス	-11.2115
最小の要素	-11.2128
'#'	-11.2128
を含んでい	-11.2135
残っている	-11.2144
ANT	-11.2145
それ自身	-11.2165
廃止	-11.2172
を検索する	-11.2174
の初期値は	-11.2182
Rec	-11.2187
であるとき	-11.219
っている場合	-11.2205
指定されなければ	-11.2206
比較演算	-11.2206
第一	-11.2207
アンパック処理	-11.2227
オブジェクトへの参照	-11.2233
任意の引数	-11.2242
オーバーフローの	-11.2246
を使うこともできます	-11.225
発生し	-11.2251
受け取った	-11.2253
つだけ	-11.2253
使いません	-11.226
するのに使われます	-11.2264
ECT	-11.2274
に変換して	-11.2286
メソッドと属性	-11.229
グループ名	-11.229
▁もサポート	-11.2291
可能であれば	-11.2291
場所で	-11.2304
必要とされる	-11.2317
を書き込みます	-11.2318
マッピング型	-11.2324
式リスト	-11.2332
要素の数	-11.2332
バイナリシーケンス	-11.2341
5.6	-11.235
をインポートする	-11.2364
を追加して	-11.2367
に近い	-11.2382
に注意してください	-11.2384
るという	-11.2386
進め	-11.2406
受け取ります	-11.2416
任意のオブジェクト	-11.2423
▁execut	-11.2425
偽の場合	-11.2429
特別な意味	-11.2446
使うべきです	-11.246
を分割する	-11.2461
に応じた	-11.247
すでに存在する	-11.2481
書かれている	-11.2485
なっていて	-11.2496
▁を使用でき	-11.2509
でエンコードされた	-11.2521
をサポートするために	-11.2528
コール	-11.2529
割り当てられ	-11.254
おくと	-11.2568
ISO	-11.2578
オブジェクトは以下のメソッド	-11.2579
UnicodeError	-11.2581
▁1.5	-11.2591
クラスのコンストラクタ	-11.2619
ビット単位演算	-11.2628
クローズ	-11.2635
▁ファクトリ関数	-11.2636
を決定し	-11.2638
ときに送出される例外	-11.2666
閉じた	-11.2681
ものでなければなりません	-11.2702
に到達し	-11.2716
正規	-11.2719
考	-11.2738
クローズされ	-11.2742
かを決め	-11.276
個別	-11.2762
行える	-11.2765
オープンした	-11.2781
▁occur	-11.2792
指している	-11.2793
▁collection	-11.2796
Iterable	-11.2806
スタックトレース	-11.2807
を付けて	-11.2812
そのインスタンス	-11.2814
▁resource	-11.2816
値を指定する	-11.282
後者	-11.282
の説明を参照してください	-11.2821
▁Uni	-11.2825
ified	-11.2825
バイト列リテラル	-11.2825
mount	-11.283
進数で	-11.2831
ssignment	-11.2831
を含み	-11.2837
になるでしょう	-11.2837
▁receive	-11.2842
warn	-11.2847
refix	-11.2847
▁mkst	-11.2847
を再利用	-11.2853
component	-11.2855
を計算します	-11.2856
▁MMDF	-11.2856
位	-11.2857
パーミッション	-11.2857
EVEN	-11.2857
チェイン	-11.2858
ひ	-11.2858
ffective	-11.2858
各引数	-11.2859
機	-11.2859
被	-11.2859
白	-11.2859
collect	-11.2859
▁remote	-11.2859
ディスパッチ	-11.2859
安	-11.286
在	-11.286
norm	-11.286
真の場合	-11.286
ノンブロッキング	-11.286
▁prior	-11.286
測	-11.286
MAC	-11.286
及	-11.286
一貫性	-11.286
級	-11.286
ノ	-11.286
格	-11.286
多重継承	-11.286
復号	-11.286
をエミュレートする	-11.286
エコー	-11.286
ハイフン	-11.286
に収まる	-11.286
を複製	-11.286
を越え	-11.286
ダイアログ	-11.286
現在の作業ディレクトリ	-11.286
舞	-11.286
Download	-11.286
JSONEncoder	-11.286
▁quopri	-11.286
スレッドを起こ	-11.286
ディレクティブ	-11.286
書き込み用にオープン	-11.286
FancyURLopener	-11.286
INVAL	-11.286
NFKC	-11.286
STOPPED	-11.286
Shelf	-11.286
deepcopy	-11.286
exclude	-11.286
rock	-11.286
∞	-11.286
▁epilog	-11.286
が除去されます	-11.286
とは違って	-11.286
を伴う	-11.286
を検証	-11.286
を選ぶ	-11.286
カバー	-11.286
ヘ	-11.286
不透明	-11.286
(1024)	-11.286
Compute	-11.286
HANDLE	-11.286
REPLACE	-11.286
Transport	-11.286
activate	-11.286
backslashreplace	-11.286
birthday	-11.286
monotonic	-11.286
ommunication	-11.286
precationWarning	-11.286
syntax	-11.286
variate	-11.286
─	-11.286
▁Numeric	-11.286
▁Register	-11.286
▁SUITE	-11.286
▁Similar	-11.286
▁ZERO	-11.286
▁approach	-11.286
▁behaviour	-11.286
▁clamp	-11.286
▁comparison	-11.286
▁highlight	-11.286
▁requirements	-11.286
▁sentinel	-11.286
▁significant	-11.286
▁subsequent	-11.286
に関わらず	-11.286
へと延びて	-11.286
もう少し	-11.286
信号	-11.286
永	-11.286
永続化	-11.286
混乱	-11.286
生存中	-11.286
Pascal	-11.286
edProcessError	-11.286
properties	-11.286
urlretrieve	-11.286
▁Micros	-11.286
▁peek	-11.286
▁placeholder	-11.286
▁series	-11.286
▁から継承したメソッド	-11.286
に影響を与え	-11.286
SysLogHandler	-11.286
suppress	-11.286
▁restricted	-11.286
一時的に	-11.286
受け取れ	-11.286
gethostbyname	-11.286
memos	-11.286
▁height	-11.286
引数として渡す	-11.286
復旧	-11.286
状	-11.286
EHLO	-11.286
foreground	-11.286
klmnopqrstuvwxyz	-11.286
randrange	-11.286
saxutils	-11.286
▁PickleBuffer	-11.286
▁indirectly	-11.286
コントローラー	-11.286
allocate	-11.286
に基づく	-11.286
バインディング	-11.286
を選んで	-11.286
見た目	-11.286
コンボボックス	-11.286
スケジュール	-11.286
▁Sunday	-11.286
▁remaining	-11.286
デクリメント	-11.286
は次の通りです	-11.286
シャットダウン	-11.286
scroll	-11.286
PUT	-11.286
TMP	-11.286
を引き起こします	-11.286
んでいる	-11.286
コスト	-11.286
approximate	-11.286
sausage	-11.286
事ができます	-11.286
資	-11.286
▁successful	-11.286
統計	-11.286
Home	-11.286
混ぜ	-11.2861
Allow	-11.2861
invert	-11.2861
知識	-11.2861
Dcab	-11.2861
[1:]	-11.2861
floordiv	-11.2861
mro	-11.2861
ホスト名のチェックを	-11.2861
▁と等価になります	-11.2861
STDOUT	-11.2861
xplicit	-11.2861
▁decompression	-11.2861
なくなった	-11.2861
▁prevent	-11.2861
負の無限大	-11.2861
正規形	-11.2861
フラグメント識別子	-11.2861
▁remoteaddr	-11.2861
▁collected	-11.2861
同じ値を持つ	-11.2861
右辺	-11.2861
rgb	-11.2861
▁この節では	-11.2861
望む	-11.2862
Pass	-11.2862
▁fillvalue	-11.2862
見出し	-11.2862
▁tel	-11.2862
▁doctype	-11.2862
期限	-11.2862
関わ	-11.2862
▁1.1.1	-11.2862
▁を指定する場合は	-11.2862
▁5.4.	-11.2862
有効桁数	-11.2862
を初期化します	-11.2862
ialog	-11.2863
エラーを送出します	-11.2863
▁beta	-11.2863
ライタ	-11.2863
incoming	-11.2863
▁permutations	-11.2863
で利用される	-11.2863
▁eventmask	-11.2863
▁recommended	-11.2864
pdf	-11.2864
タイマー	-11.2864
xmlreader	-11.2864
truediv	-11.2864
強制的に	-11.2864
深く	-11.2864
EVENT	-11.2864
形式ごとの	-11.2864
▁ファイルのモードが	-11.2865
ぎ取ら	-11.2865
しかありません	-11.2865
sendmail	-11.2865
を与えた場合	-11.2866
グローバル名前空間	-11.2866
DefaultContext	-11.2866
が与えられていれば	-11.2867
保存された	-11.2867
無効化	-11.2867
▁テキストエンコーディング	-11.2867
chflags	-11.2868
smallest	-11.2868
以前のバージョンでは	-11.2869
具体的な	-11.2869
▁reprlib	-11.2869
を指定してください	-11.2869
より大きく	-11.2869
modify	-11.2869
不完全な	-11.2869
ファイルシステム上の	-11.287
▁reducer	-11.287
を指定しなければなりません	-11.287
▁localName	-11.2871
▁584	-11.2872
に書き込まれた	-11.2873
バッファ付き	-11.2874
サーバからの	-11.2874
例外を定義しています	-11.2874
concat	-11.2874
▁places	-11.2874
Sjoerd	-11.2874
再計算	-11.2874
からなり	-11.2875
ルト	-11.2876
tdcall	-11.2877
を更新する	-11.2877
▁この例は	-11.2877
長く	-11.2878
▁節が実行され	-11.2879
になることがあります	-11.2879
デーモンスレッド	-11.2879
▁strchr	-11.2879
の中から	-11.2879
excel	-11.2879
getLogger	-11.288
一定	-11.2881
'^'	-11.2881
であるかどうか	-11.2882
高速な	-11.2883
であるべきです	-11.2884
ブロックモード	-11.2884
より前の	-11.2884
▁ジェネレータ式	-11.2885
▁charset	-11.2885
sysconf	-11.2885
CMSG	-11.2885
クラスや関数	-11.2886
▁xmlns	-11.2887
UNC	-11.2887
タプルでなければなりません	-11.2889
にマッチし	-11.2889
▁Refer	-11.289
▁amount	-11.2891
ことが保証され	-11.2892
▁compressed	-11.2894
uster	-11.2899
のドキュメンテーション文字列	-11.2899
▁terminated	-11.29
='*'	-11.2901
cbreak	-11.2901
文字列に変換されます	-11.2902
との間で	-11.2903
Host	-11.2904
img	-11.2906
を調べます	-11.2906
が文字列の場合	-11.2907
oft	-11.2907
メモリー	-11.2907
トレースバックオブジェクト	-11.2907
するために使うことができます	-11.291
▁assigned	-11.2911
nam	-11.2915
writelines	-11.2918
▁144	-11.2919
もとの	-11.2921
に対応した	-11.2923
phi	-11.2923
からなるシーケンス	-11.2927
readlines	-11.2927
に対応してい	-11.2928
▁onerror	-11.293
を比較します	-11.293
ている間に	-11.293
見つけられ	-11.2932
を返すようになりました	-11.2935
式文	-11.2935
▁モジュールは以下の	-11.2937
ncurses	-11.294
▁leave	-11.2942
pathconf	-11.2947
ファイルタイプ	-11.2949
内部バッファ	-11.2951
を無効にする	-11.2955
全ての言語	-11.2955
を避け	-11.2956
VT	-11.2964
圧縮ストリーム	-11.2966
hasattr	-11.2966
SIO	-11.2967
切られ	-11.2971
実時間	-11.2974
名前解決	-11.2975
にアクセスでき	-11.298
▁calculat	-11.2983
はたらき	-11.2985
▁が指定されてい	-11.2989
をサポートしている場合	-11.2997
で置き換える	-11.3002
settings	-11.3003
てはなりません	-11.3006
を行いたい	-11.3009
readPoolExecutor	-11.3016
listdir	-11.3021
することはできます	-11.3036
指定されていない場合	-11.304
IDN	-11.3046
生じる	-11.3057
987	-11.3081
を呼び出して	-11.3089
attribute	-11.3094
DH	-11.3104
Iterator	-11.3111
logger	-11.3119
TCP	-11.3155
OrderedDict	-11.3157
high	-11.3157
HTML	-11.3157
public	-11.3158
ftp	-11.3159
namedtuple	-11.3162
CERT	-11.3162
RLock	-11.3162
Pool	-11.3163
partial	-11.3165
MIME	-11.3169
world	-11.317
SSLSocket	-11.3172
hop	-11.3173
親クラス	-11.3175
サポートされていません	-11.3178
を紹介します	-11.3188
supported	-11.3188
Lib	-11.3189
上書きされ	-11.3191
例外を発生させる	-11.3204
は変更され	-11.3207
を解決する	-11.321
DEV	-11.3214
finder	-11.3216
存在する場合	-11.3223
ようにしています	-11.3226
importer	-11.3291
できるだけ	-11.3299
reuse	-11.3303
の長さは	-11.3309
していました	-11.3325
になるよう	-11.3328
▁operat	-11.3352
サポートしている	-11.338
▁上では	-11.3383
を除去し	-11.3383
に送信します	-11.3404
るまでブロック	-11.3409
指定できる値は	-11.3416
するのではなく	-11.3446
ファイルの形式	-11.3482
必要がある場合	-11.3505
まとめる	-11.3506
閉じられます	-11.3518
必要があり	-11.3523
真ならば	-11.3535
が許可され	-11.3536
▁5.1	-11.3537
近似値	-11.3558
指定されていた場合	-11.3568
あなた	-11.3577
を意味し	-11.3584
▁4.0	-11.3591
使うことができ	-11.3639
ware	-11.3646
が好ま	-11.3653
▁を満た	-11.3656
追加の引数	-11.3659
TION	-11.3661
変更可能	-11.3663
イテレータオブジェクト	-11.3683
先頭から	-11.3687
オブジェクトの値	-11.3697
閉じられた	-11.3704
▁セクションに	-11.3718
格納した	-11.3725
かどうか調べ	-11.3726
ったとき	-11.3731
あるとき	-11.3759
▁smtp	-11.3778
互換性のために	-11.3784
を取り除き	-11.3785
ゼロでない	-11.3797
reserved	-11.3819
を表す整数	-11.3819
使用可能な	-11.3847
利用している	-11.3853
しないでください	-11.3863
プライベート	-11.3884
固	-11.3889
▁suit	-11.3892
サポートしていません	-11.3902
バッファプロトコル	-11.3914
1111111	-11.3928
メソッドを定義する	-11.3929
有用	-11.3932
以	-11.3933
trunc	-11.3934
シンプル	-11.3941
以下のようになります	-11.3949
を定義した	-11.3961
が入ってい	-11.3961
良	-11.3962
間接的に	-11.3964
を示す文字列です	-11.3964
▁Hash	-11.3966
コン	-11.3967
▁mont	-11.3968
不能な	-11.3968
弱	-11.3968
cada	-11.3969
Memory	-11.397
質	-11.397
受	-11.397
WAIT	-11.397
▁measure	-11.3971
号	-11.3971
則	-11.3971
写	-11.3971
ディクショナリ	-11.3971
テクニック	-11.3971
lamb	-11.3971
に過ぎ	-11.3971
接尾辞	-11.3971
を追跡する	-11.3971
揃	-11.3971
スキャン	-11.3971
ディスプレイ	-11.3971
スタート	-11.3971
根	-11.3971
QUIT	-11.3971
あらわ	-11.3971
キーボード	-11.3971
ALERT	-11.3971
lshift	-11.3971
rshift	-11.3971
SCHED	-11.3971
minimum	-11.3971
mkdtemp	-11.3971
を得るために	-11.3971
を指し示す	-11.3971
日付および時刻	-11.3971
Encoding	-11.3971
LastError	-11.3971
ValueDictionary	-11.3971
arrival	-11.3971
hypot	-11.3971
layout	-11.3971
standalone	-11.3971
▁Rounded	-11.3971
に相当する	-11.3971
ネストした	-11.3971
乱数生成器	-11.3971
修飾子	-11.3971
取り除く	-11.3971
想定され	-11.3971
Arthur	-11.3971
DGRAM	-11.3971
ELEMENT	-11.3971
Entity	-11.3971
EntityResolver	-11.3971
Forward	-11.3971
NUMBER	-11.3971
SSLWantReadError	-11.3971
Singapore	-11.3971
Solaris	-11.3971
XMLPullParser	-11.3971
cryptographic	-11.3971
ingInstruction	-11.3971
major	-11.3971
matrix	-11.3971
msvcrt	-11.3971
partition	-11.3971
people	-11.3971
semaphore	-11.3971
unverifiable	-11.3971
▁Constant	-11.3971
▁Deprecated	-11.3971
▁Extensions	-11.3971
▁brief	-11.3971
▁desired	-11.3971
▁destination	-11.3971
▁earlier	-11.3971
▁errcheck	-11.3971
▁stocks	-11.3971
▁third	-11.3971
▁unpickling	-11.3971
さもなければ	-11.3971
で埋められます	-11.3971
に基づいた	-11.3971
はじめに	-11.3971
を伴って	-11.3971
コンテキストマネージメント	-11.3971
コーデック	-11.3971
チェーン	-11.3971
バイナリモードで開かれてい	-11.3971
読み込み用にオープンします	-11.3971
CLOEXEC	-11.3971
MIXER	-11.3971
PAGE	-11.3971
calcsize	-11.3971
crementalDecoder	-11.3971
proxies	-11.3971
▁greate	-11.3971
クライアントサイド	-11.3971
ダウンロード	-11.3971
抽象クラス	-11.3971
monster	-11.3971
ことを保証します	-11.3971
で終わってい	-11.3971
やりとり	-11.3971
をクリアし	-11.3971
ウェブ	-11.3971
サフィックス	-11.3971
一時ディレクトリ	-11.3971
流	-11.3971
BUY	-11.3971
RedirectHandler	-11.3971
igestAuthHandler	-11.3971
▁isolation	-11.3971
▁rcpt	-11.3971
▁を呼んで	-11.3971
▁サーバへの接続	-11.3971
▁文字以上ある	-11.3971
に含まれます	-11.3971
の末端	-11.3971
ロックを獲得します	-11.3971
感	-11.3971
正当な	-11.3971
母集団	-11.3971
羅	-11.3971
Jython	-11.3971
▁KiB	-11.3971
解除され	-11.3971
ネストされた	-11.3971
アーキテクチャ	-11.3971
Full	-11.3971
qualname	-11.3971
で決まります	-11.3971
どれも	-11.3971
は保証されません	-11.3971
商	-11.3971
opcodes	-11.3971
会	-11.3971
本質的に	-11.3971
を読んで	-11.3972
1939	-11.3972
付属的なデータ	-11.3972
Agent	-11.3972
デバッガ	-11.3972
▁で圧縮された	-11.3972
強力な	-11.3972
▁telnetlib	-11.3972
oftware	-11.3972
に関連付けられている	-11.3972
▁shake	-11.3972
optionxform	-11.3972
工	-11.3972
観	-11.3972
二項演算	-11.3972
mime	-11.3972
▁symbolic	-11.3972
▁fillbyte	-11.3972
英数字	-11.3972
▁seekable	-11.3972
望みの	-11.3972
等しければ	-11.3972
▁performance	-11.3972
matmul	-11.3972
▁が指定されていないか	-11.3972
ファイル様オブジェクト	-11.3972
ポーション	-11.3972
手段を提供し	-11.3972
の入っている	-11.3972
符号化方式	-11.3972
SimpleNamespace	-11.3972
4122	-11.3972
tixCommand	-11.3972
新しいファイル記述子は	-11.3972
Print	-11.3972
フリー	-11.3972
予期しない	-11.3972
PAX	-11.3973
二重	-11.3973
▁MyManager	-11.3973
▁occurred	-11.3973
--------------	-11.3973
▁nonzero	-11.3973
入れ子	-11.3973
線形	-11.3973
▁メソッドに渡された	-11.3973
3.140000	-11.3973
shallow	-11.3973
読み書き可	-11.3973
設計されました	-11.3974
+00	-11.3974
▁が与えられている場合	-11.3974
▁Decompress	-11.3974
を管理します	-11.3974
excepthook	-11.3974
▁initialized	-11.3974
無言	-11.3974
文字列のコピーを返します	-11.3974
ルートロガーで	-11.3974
ディスク上の	-11.3975
RESET	-11.3975
▁undefined	-11.3975
▁charjunk	-11.3975
をそのまま返します	-11.3975
▁encountered	-11.3975
ネットワークバイトオーダ	-11.3975
▁BaseException	-11.3975
多数の	-11.3975
のうちの一つ	-11.3975
を変更せずに	-11.3975
短く	-11.3975
devnull	-11.3975
速く	-11.3976
特性	-11.3976
ITAL	-11.3976
遅く	-11.3976
右端	-11.3976
CONT	-11.3976
必要ありません	-11.3976
▁unexpected	-11.3976
クラスの新たなインスタンス	-11.3976
最終的な	-11.3976
SIGINT	-11.3976
"1.0"	-11.3977
マシン上で	-11.3977
▁popitem	-11.3977
で指定される	-11.3977
関数プロトタイプ	-11.3977
リンク先	-11.3977
入っていない	-11.3977
▁components	-11.3977
設計されています	-11.3977
づつ	-11.3977
▁exactly	-11.3978
OTH	-11.3978
オブジェクトの同一性	-11.3978
メモリビュー	-11.3978
プライベートな	-11.3978
カレントプロセス	-11.3978
便利なことがあります	-11.3978
▁bad	-11.3978
#!/	-11.3978
ECDHE	-11.3979
前述	-11.3979
わけではない	-11.3979
再帰呼び出し	-11.3979
serialization	-11.3979
定義されていません	-11.3979
の深さ	-11.398
Serv	-11.398
名前つき	-11.398
を指定することもできます	-11.398
論理演算	-11.398
BCM	-11.3981
▁次の例は	-11.3981
エラーが発生	-11.3981
に注目して	-11.3982
▁このウィジェットは	-11.3982
▁initargs	-11.3982
▁datefmt	-11.3982
が指定されていれば	-11.3982
tamp	-11.3983
STU	-11.3983
プロセス間で	-11.3983
に渡すことができます	-11.3984
を扱うための	-11.3984
回以上	-11.3984
ability	-11.3984
サンプル幅	-11.3985
▁メソッドが返す	-11.3985
(1,2)	-11.3985
記述されています	-11.3986
から取られ	-11.3986
SOL	-11.3987
▁現在のプロセスの実	-11.3987
('*.	-11.3988
コードを書く	-11.3988
を取得するために	-11.3988
にマッピングする	-11.3988
button	-11.3988
を作ることができます	-11.3989
presentation	-11.399
LET	-11.3991
ブロックデバイス	-11.3991
名前空間宣言	-11.3991
connstream	-11.3992
weak	-11.3993
変換テーブル	-11.3993
▁パラメタが	-11.3993
▁failed	-11.3994
▁ndiff	-11.3995
対話的な	-11.3995
multithread	-11.3996
インタープリター	-11.3997
されていなかった	-11.3997
を使用している場合	-11.3997
TOO	-11.3999
▁1.25	-11.3999
▁linecache	-11.3999
unused	-11.4
▁を実行すると	-11.4001
ENOT	-11.4002
利用例	-11.4002
親ディレクトリ	-11.4002
backlog	-11.4003
ファイルの終端	-11.4004
▁CAP	-11.4005
非圧縮	-11.4006
▁のサブクラスのインスタンス	-11.4006
ディレクトリツリー	-11.4008
使用中の	-11.4008
sendmsg	-11.4009
機能を提供します	-11.401
▁をエンコードし	-11.4011
呼び出すことができます	-11.4015
FileIO	-11.4018
='+'	-11.4018
を結合した	-11.4019
▁yet	-11.4019
hide	-11.4021
=10)	-11.4024
を意味する	-11.4027
の実行中に	-11.4027
を使っています	-11.4028
statespec	-11.403
サブパッケージ	-11.403
プライベートコピー	-11.4037
largest	-11.4037
送信先	-11.4042
800	-11.4043
fails	-11.4046
CLD	-11.4053
をテストする	-11.4054
と同じもの	-11.4055
バイ	-11.4063
keyfunc	-11.4084
を変更して	-11.409
値の範囲	-11.4093
であることを示し	-11.4094
その他のエラー	-11.4096
conv	-11.4103
=22	-11.4124
verse	-11.4127
必要ならば	-11.4128
空の辞書	-11.4132
resp	-11.4143
インスタンスメソッドオブジェクト	-11.4147
バイト単位	-11.4149
書かれた	-11.4152
に置き換える	-11.4154
シーケンスのコピー	-11.4161
smtpd	-11.4168
Too	-11.4173
の通りです	-11.4181
を列挙し	-11.4214
efrag	-11.4216
ことを除けば	-11.422
をもってい	-11.4227
も含まれ	-11.4232
space	-11.4241
機能について	-11.4242
ファクトリ関数は	-11.4243
ことが可能です	-11.4246
が成功	-11.4247
入れる	-11.4247
結果の文字列	-11.4247
すべてのプラットフォームで	-11.4253
fromlines	-11.4259
404	-11.4267
を設定することで	-11.4278
Port	-11.428
用いられる	-11.4295
918	-11.4305
xxxxxx	-11.4314
制御メッセージ	-11.4327
後に続く	-11.4328
クラスメソッドオブジェクト	-11.4336
効率的	-11.4354
50000	-11.4354
366	-11.4356
構造化	-11.4366
ハッシュ化	-11.4369
Intern	-11.4374
圧縮データ	-11.4375
として扱う	-11.4384
使うべき	-11.4399
separator	-11.4405
扱われる	-11.4406
CookieJar	-11.4406
Repr	-11.4409
internal	-11.441
HTMLParser	-11.441
verbose	-11.441
を終了させ	-11.4414
application	-11.4415
numeric	-11.4415
をサポートしてい	-11.4415
lzma	-11.4416
descriptor	-11.4418
frozenset	-11.4419
例外の基底クラス	-11.442
FTP	-11.4421
sizeof	-11.4422
のに使います	-11.4423
となるよう	-11.4424
continue	-11.4424
yield	-11.4424
callable	-11.4428
subprocess	-11.4428
compname	-11.444
フィールドの値	-11.4452
不可能な	-11.4454
このメソッドを呼び出し	-11.4474
指定されていない	-11.4482
に到達した	-11.4493
ときに便利です	-11.4506
▁関数を使う	-11.4528
時点	-11.4541
属性に代入	-11.4549
▁メソッドを持つオブジェクト	-11.4568
終了した場合	-11.4571
=(0	-11.4606
全順序	-11.4607
COMM	-11.4608
プロセスセーフ	-11.4635
相対的	-11.4659
▁operate	-11.4663
続ける	-11.4667
イミュータブル	-11.4686
を共有する	-11.4693
関数が呼び出され	-11.471
を送出するかもしれません	-11.472
インデクス指定	-11.4741
999999999	-11.4745
送られ	-11.4758
を許可する	-11.4784
にわたる	-11.4789
▁モジュールを使う	-11.4821
▁simpl	-11.4822
インストールされている	-11.4823
含まれている	-11.4854
を作成できます	-11.4855
言い	-11.4885
していれば	-11.4888
カプセル化	-11.4896
のほとんどは	-11.4919
retr	-11.4922
-8859-	-11.5061
することが出来ます	-11.5061
を無視して	-11.5063
NSI	-11.5072
ることはありません	-11.5119
使うこともできます	-11.512
が終了したとき	-11.5125
scii	-11.515
の下に	-11.5155
1000000000000000	-11.5159
を受信し	-11.5159
▁keep	-11.5163
印	-11.5163
が適用され	-11.5169
wards	-11.5177
1,2,3	-11.5177
しまう	-11.5181
動的	-11.5186
pressed	-11.5198
▁'200	-11.52
stances	-11.5203
CUR	-11.5208
ackground	-11.5209
▁adapt	-11.5209
メモリ上	-11.5211
▁Mail	-11.5212
済	-11.5213
▁describe	-11.5214
frozen	-11.5216
規約	-11.5216
帰	-11.5216
PROT	-11.5216
タイマ	-11.5217
nterface	-11.5217
組込み	-11.5218
Struct	-11.5219
アンロック	-11.5219
Info	-11.522
場	-11.522
トレース	-11.522
満	-11.522
完	-11.522
であれ	-11.5221
Import	-11.5221
quant	-11.5221
任	-11.5221
sible	-11.5221
細かい	-11.5221
飛	-11.5221
録	-11.5221
NEW	-11.5221
変わり	-11.5221
タイミング	-11.5221
大文字小文字の区別	-11.5221
は省略可能で	-11.5221
セミコロン	-11.5221
模	-11.5221
に並んでい	-11.5221
イディオム	-11.5221
品質	-11.5221
残念ながら	-11.5221
使おうと	-11.5221
捕	-11.5221
シード	-11.5221
含まれない	-11.5221
にのみ適用されます	-11.5221
伝統的な	-11.5221
擬似乱数生成器	-11.5221
手動で	-11.5221
証明書の検証	-11.5221
読み込め	-11.5221
Wrapper	-11.5221
スーパ	-11.5221
メソッドを呼んで	-11.5221
交	-11.5221
FUNCTYPE	-11.5221
▁BUTTON	-11.5221
▁imghdr	-11.5221
に配置され	-11.5221
カラー	-11.5221
スイッチ	-11.5221
ボリューム	-11.5221
ラジアン	-11.5221
一時的な	-11.5221
危	-11.5221
現桁位置	-11.5221
BufferedRandom	-11.5221
DictWriter	-11.5221
RHAT	-11.5221
SMTPChannel	-11.5221
abbrev	-11.5221
advise	-11.5221
basket	-11.5221
entropy	-11.5221
expires	-11.5221
quantiles	-11.5221
ritical	-11.5221
symmetric	-11.5221
▁NamedNodeMap	-11.5221
▁字罫線	-11.5221
ゲートウェイ	-11.5221
ファイルライクオブジェクト	-11.5221
手続き	-11.5221
括	-11.5221
APPEND	-11.5221
Coroutine	-11.5221
DEFAULTSECT	-11.5221
Enter	-11.5221
HOME	-11.5221
Handling	-11.5221
MULTILINE	-11.5221
ParserCreate	-11.5221
SIGTERM	-11.5221
SLWantWriteError	-11.5221
STORED	-11.5221
TWOPLACES	-11.5221
Transfer	-11.5221
UNICODE	-11.5221
Words	-11.5221
antoine	-11.5221
central	-11.5221
destroy	-11.5221
emonstrate	-11.5221
ictures	-11.5221
milliseconds	-11.5221
relief	-11.5221
replied	-11.5221
synchronize	-11.5221
▁Layer	-11.5221
▁Provide	-11.5221
▁Specification	-11.5221
▁SystemExit	-11.5221
▁applies	-11.5221
▁coordinates	-11.5221
▁deviation	-11.5221
▁enumeration	-11.5221
▁reflect	-11.5221
▁respectively	-11.5221
▁smincol	-11.5221
▁trigger	-11.5221
▁にはマッチしません	-11.5221
は以下のとおりです	-11.5221
は伝搬されます	-11.5221
プラス	-11.5221
ホームディレクトリ	-11.5221
壊れたシンボリックリンク	-11.5221
科	-11.5221
背後の	-11.5221
類似の	-11.5221
Abstract	-11.5221
GetWindowRect	-11.5221
MemoRecord	-11.5221
Planet	-11.5221
adpcm	-11.5221
crementalEncoder	-11.5221
download	-11.5221
exclusive	-11.5221
license	-11.5221
organization	-11.5221
pgrp	-11.5221
votes	-11.5221
▁Blue	-11.5221
▁Echo	-11.5221
も含め	-11.5221
バリエーション	-11.5221
プログレスバー	-11.5221
リスク	-11.5221
Cannot	-11.5221
NetBSD	-11.5221
SyncManager	-11.5221
ikipedia	-11.5221
sminrow	-11.5221
witch	-11.5221
ように指示し	-11.5221
を反映し	-11.5221
エンコードとデコード	-11.5221
ダンプ	-11.5221
大小文字の区別のある文字	-11.5221
EXEC	-11.5221
IANA	-11.5221
▁transposed	-11.5221
ストレージ	-11.5221
完全修飾ドメイン名	-11.5221
5511151231257827	-11.5221
URN	-11.5221
▁ParseResult	-11.5221
▁返答	-11.5221
が定義されていない場合には	-11.5221
データベースを読み書き用に開く	-11.5221
引き継がれ	-11.5221
復活し	-11.5221
DFL	-11.5221
ULT	-11.5221
getaddrinfo	-11.5221
に比べて	-11.5221
オブジェクト指向	-11.5221
UserList	-11.5221
▁exchange	-11.5221
▁temporar	-11.5221
アクセサ	-11.5221
予約されてい	-11.5221
画面	-11.5221
:26:	-11.5221
LOB	-11.5221
Menubutton	-11.5221
{...}	-11.5221
▁Wait	-11.5221
ユニーク	-11.5221
▁divide	-11.5222
いったん	-11.5222
変わった	-11.5222
最小限の	-11.5222
末尾の改行	-11.5222
HCI	-11.5222
▁[...]	-11.5222
には以下のメソッドがあります	-11.5222
打	-11.5222
日付や時刻	-11.5222
drug	-11.5222
かわりに	-11.5222
を引き起こす	-11.5222
EBAD	-11.5222
fifo	-11.5222
どちらの場合も	-11.5222
を容易に	-11.5222
ナノ秒	-11.5222
ざ	-11.5222
を書いている	-11.5222
▁paramflags	-11.5222
ドライブレター	-11.5222
微	-11.5222
添え字	-11.5222
大量の	-11.5222
RAM	-11.5222
demo	-11.5222
Two	-11.5222
execvp	-11.5222
Enable	-11.5222
parsing	-11.5222
▁smm	-11.5222
と等しくなります	-11.5222
勝者	-11.5222
▁Copy	-11.5222
DIRECT	-11.5222
▁past	-11.5222
毎回	-11.5222
を受け取って	-11.5222
leap	-11.5222
Subnormal	-11.5222
pplied	-11.5222
Date	-11.5222
統合	-11.5222
CVS	-11.5222
half	-11.5222
cpu	-11.5222
▁asynchronously	-11.5222
▁consider	-11.5222
キャプチャグループ	-11.5222
スペ	-11.5222
ことが保証されています	-11.5222
切り捨て除算	-11.5222
もともと	-11.5222
trl	-11.5222
ATTR	-11.5222
01234'	-11.5222
は削除されません	-11.5223
▁peer	-11.5223
向いてい	-11.5223
と一致する	-11.5223
merge	-11.5223
例外が発生する	-11.5223
ルートロガーの	-11.5223
が終了するまで	-11.5223
読みやすい	-11.5223
HTTPSConnection	-11.5223
MemoryHandler	-11.5223
▁interrupted	-11.5223
('1.23	-11.5223
インラインフラグ	-11.5224
lowercase	-11.5224
木構造	-11.5224
▁SIGPIPE	-11.5224
不明	-11.5224
xef	-11.5224
▁daylight	-11.5224
より高度な	-11.5224
ホストバイトオーダ	-11.5224
プリセット	-11.5224
予め	-11.5224
比較対象が	-11.5224
高々	-11.5224
平文	-11.5224
▁plistlib	-11.5224
オン	-11.5224
プログラミング言語	-11.5224
▁Ttk	-11.5225
は変更されず	-11.5225
オリジナルヘッダ	-11.5225
証明書チェイン	-11.5225
▁qsort	-11.5225
Bad	-11.5225
は破棄されます	-11.5225
wise	-11.5225
rlcompleter	-11.5225
ancdata	-11.5225
ツリービュー	-11.5225
▁インポートパス	-11.5225
分類	-11.5225
interactive	-11.5226
crl	-11.5226
パーミッションエラー	-11.5226
LEAF	-11.5226
HTMLCalendar	-11.5226
どれで	-11.5226
を表しています	-11.5226
[0:	-11.5226
▁SAXException	-11.5226
を利用してください	-11.5227
に制限されています	-11.5227
ProxyType	-11.5227
でないかぎり	-11.5227
▁quotechar	-11.5228
ノードを生成し	-11.5228
sentence	-11.5228
書き方	-11.5228
わしい	-11.5228
DAY	-11.5228
▁prototype	-11.5228
デフォルトの実装では	-11.5228
読み出す	-11.5228
pep	-11.5229
▁outside	-11.5229
データを読み込みます	-11.5229
▁3.3.3.	-11.5229
文字列の文法	-11.5229
負のインデックス	-11.523
定義済みの	-11.523
had	-11.523
▁Functions	-11.523
SYS	-11.5231
認識できない	-11.5231
表記法	-11.5231
toaddrs	-11.5231
▁変換フラグ	-11.5232
1988	-11.5232
有効数字	-11.5232
▁every	-11.5232
▁optparse	-11.5232
▁subclasses	-11.5233
GetModuleHandleA	-11.5233
▁Exce	-11.5233
をインプレースに	-11.5233
セキュアな	-11.5234
▁dircmp	-11.5234
/200	-11.5234
が与えられると	-11.5236
最も左	-11.5236
333	-11.5236
変換後の	-11.5237
(100)	-11.5237
ログファイルの	-11.5238
▁extensions	-11.524
を与えることができます	-11.5241
unified	-11.5243
putenv	-11.5243
ooth	-11.5245
できるようにするために	-11.5247
エラーが送出され	-11.5248
ローカルな変数	-11.525
mono	-11.5253
▁'0.9	-11.5254
WSGIServer	-11.5255
現在の実装では	-11.5256
かを制御します	-11.5258
定義されていれば	-11.5259
短縮形	-11.5259
IDLE	-11.5264
削除される	-11.5269
モジュールをロード	-11.5271
Union	-11.5275
destwin	-11.5277
に格納されている	-11.5278
reconstruct	-11.5278
があった場合	-11.5281
▁0.4	-11.5283
▁メソッドを定義してい	-11.5283
finished	-11.5285
▁"\"	-11.5287
関連付けられてい	-11.529
に用いる	-11.5296
Unit	-11.53
カンマで区切	-11.5305
信頼できる	-11.5306
が真なら	-11.5309
を持っていなければ	-11.5313
が与えられたとき	-11.5313
ウィジェットの状態	-11.5316
rete	-11.5317
SMTPHandler	-11.532
認め	-11.5321
メインスレッド	-11.5325
▁マニュアルページ	-11.5325
▁をインポートし	-11.5326
答え	-11.5333
扱うことができ	-11.5339
書式コード	-11.5345
を制限する	-11.5358
に対応させ	-11.5363
以前のバージョン	-11.5371
送信元	-11.54
relate	-11.5418
通常通り	-11.5425
192	-11.5443
そこ	-11.5487
formatters	-11.5487
読み出し専用属性	-11.5493
を持たせ	-11.5495
ometimes	-11.5526
をカプセル化し	-11.5558
mportant	-11.5567
をインストールし	-11.5574
ubpackage	-11.5582
'$'	-11.5606
にも適用され	-11.562
ATION	-11.5631
注意すべき	-11.5653
に限定され	-11.5698
で構成されてい	-11.5714
使用された場合	-11.5715
内部状態を	-11.5722
避ける	-11.5736
▁deal	-11.5741
LATI	-11.5752
を解釈する	-11.5759
が開始され	-11.5767
▁を設定すること	-11.5783
つけて	-11.5784
break	-11.5789
microsecond	-11.5791
アクティブ	-11.5807
Status	-11.5812
と考える	-11.5819
machine	-11.5833
ChainMap	-11.5833
mailcap	-11.5836
Maildir	-11.5836
IntFlag	-11.5837
Tix	-11.5839
Future	-11.5839
begin	-11.5839
CPU	-11.584
GNU	-11.584
TarFile	-11.5843
indices	-11.5844
SQL	-11.5844
itertools	-11.5844
extra	-11.5844
PosixPath	-11.5847
platform	-11.5847
RuntimeError	-11.5849
shutil	-11.5852
collections	-11.5852
KEY	-11.5852
specified	-11.5855
そのまま返	-11.5858
▁に指定できる値	-11.589
を除去した	-11.5933
▁2.3	-11.5966
を呼び出す前に	-11.5993
利用できるように	-11.5993
Current	-11.6001
にコピーされ	-11.6011
情報を提供し	-11.6013
入れられ	-11.6022
と宣言され	-11.6029
.2.1.	-11.6041
サーバに送信	-11.6045
場合に限り	-11.6078
に変更する	-11.6119
you	-11.6187
使うための	-11.6204
'\\'	-11.6238
について説明し	-11.6284
なくてはなら	-11.6285
▁Pack	-11.63
より詳しく	-11.6334
AsyncItera	-11.6372
ypt	-11.638
リストの末尾に	-11.6455
二つめ	-11.6457
同様	-11.6462
共	-11.6465
もし指定され	-11.6473
と同様に解釈されます	-11.6474
They	-11.6507
グレゴリオ暦	-11.6517
▁expect	-11.6533
が不正	-11.6565
っていません	-11.6567
omething	-11.6588
▁usual	-11.6594
例外を発生させ	-11.6607
信用	-11.6607
▁Support	-11.6607
チェックサム	-11.6607
チャンネル	-11.661
組み合わ	-11.6618
が与えられなければ	-11.662
は使用でき	-11.662
かどうかを調べる	-11.6621
▁hav	-11.6621
に従い	-11.663
ディスパッチテーブル	-11.663
eNotFoundError	-11.6633
▁を呼んだ	-11.6636
▁invok	-11.6638
▁perform	-11.6638
▁trail	-11.6642
超	-11.6644
hould	-11.6645
十	-11.6647
Collect	-11.6648
Creat	-11.6648
インライン	-11.6648
▁Auto	-11.6648
覚	-11.6648
項	-11.6648
ぜ	-11.6649
Version	-11.6649
義	-11.6649
装	-11.6649
統	-11.6649
Command	-11.6649
▁distribut	-11.6649
メモ	-11.6649
廃	-11.6649
▁sequen	-11.6649
book	-11.665
予期	-11.665
シンボリック	-11.665
Execut	-11.665
習	-11.665
surrogate	-11.665
スケジューリング	-11.665
いろいろな	-11.665
を返そうと	-11.665
パート	-11.665
につなが	-11.665
エンジン	-11.665
プレーン	-11.665
役	-11.665
white	-11.665
合致し	-11.665
最低でも	-11.665
防	-11.665
きちんと	-11.665
組合せ	-11.665
をおこな	-11.665
ヘルパー	-11.665
旧	-11.665
トリガ	-11.665
メンテナンス	-11.665
ロケータ	-11.665
ロックの状態がアンロック	-11.665
引き起こし	-11.665
正の無限大	-11.665
SyntaxErr	-11.665
かどうかを示すフラグ	-11.665
をどう配置するかを指定	-11.665
シグナルをトラップしな	-11.665
意図されています	-11.665
返却	-11.665
かつそのときに限り	-11.665
を使わない	-11.665
ステートレス	-11.665
定期的に	-11.665
自然対数	-11.665
▁favor	-11.665
に影響を及ぼす	-11.665
に渡せる値で	-11.665
ホワイトリスト	-11.665
マスタ	-11.665
依然として	-11.665
間違い	-11.665
Change	-11.665
DUMP	-11.665
EXITED	-11.665
FuncPtr	-11.665
Interrupt	-11.665
PARAM	-11.665
console	-11.665
introspection	-11.665
ncrementalParser	-11.665
エラーが検出された	-11.665
パブリック	-11.665
ベストプラクティス	-11.665
標準偏差	-11.665
1583404541015625	-11.665
Archi	-11.665
Audio	-11.665
CHARACTER	-11.665
COMPRESS	-11.665
CONTINUE	-11.665
DEFLATED	-11.665
DEVNULL	-11.665
ExtendedContext	-11.665
HEAD	-11.665
Januar	-11.665
MASK	-11.665
Ordered	-11.665
QueueListener	-11.665
RANDOM	-11.665
RCVALL	-11.665
Refused	-11.665
Separate	-11.665
Source	-11.665
UnpicklingError	-11.665
UserDict	-11.665
WithPriorAuth	-11.665
XInclude	-11.665
attack	-11.665
committers	-11.665
eakKeyDictionary	-11.665
eometric	-11.665
focus	-11.665
parenthesized	-11.665
physical	-11.665
raft	-11.665
unordered	-11.665
▁Generic	-11.665
▁HWND	-11.665
▁NumPy	-11.665
▁alternative	-11.665
▁bottles	-11.665
▁clause	-11.665
▁estimate	-11.665
▁forbidden	-11.665
▁indefinitely	-11.665
▁interpreted	-11.665
▁libraries	-11.665
▁percentile	-11.665
▁security	-11.665
▁trust	-11.665
▁wakeup	-11.665
エンディアン	-11.665
ギ	-11.665
シグナルによって中断され	-11.665
レルム	-11.665
中央値	-11.665
何度も	-11.665
保留	-11.665
後方参照	-11.665
書き表されます	-11.665
Descriptor	-11.665
DictReader	-11.665
README	-11.665
▁Bill	-11.665
▁LibreSSL	-11.665
▁fanout	-11.665
▁posterior	-11.665
ふ	-11.665
ふたつの	-11.665
をご覧ください	-11.665
コミット	-11.665
スライシング	-11.665
ヒューリスティック	-11.665
予約語	-11.665
形式で表します	-11.665
期待される	-11.665
INSERT	-11.665
JUNK	-11.665
Library	-11.665
MOVE	-11.665
UDPLITE	-11.665
currkey	-11.665
negotiat	-11.665
netscape	-11.665
▁Close	-11.665
▁dynamic	-11.665
▁together	-11.665
▁準拠の	-11.665
で述べた	-11.665
役割	-11.665
状態に戻し	-11.665
言うと	-11.665
MAIL	-11.665
RAPPE	-11.665
mpeg	-11.665
sape	-11.665
▁maxBytes	-11.665
をシミュレートする	-11.665
エンコードやデコード	-11.665
プッシュ	-11.665
一次語	-11.665
二項算術演算	-11.665
完全修飾	-11.665
対応づけ	-11.665
書き換え	-11.665
書けます	-11.665
UserString	-11.665
▁DocXMLRPCServer	-11.665
▁money	-11.665
▁オーナー	-11.665
キャラクタ	-11.665
該当し	-11.665
Awaitable	-11.665
caught	-11.665
charrefs	-11.665
▁|-->	-11.665
ねばなりません	-11.665
ローテーション	-11.665
定義されていなければなりません	-11.665
getmark	-11.665
omplicated	-11.665
いわゆる	-11.665
のオーナー	-11.665
の影響を受け	-11.665
やり取り	-11.665
一次プロンプト	-11.665
インテグリティチェック	-11.665
配布	-11.665
pache	-11.665
ジオメトリ	-11.665
週の始まり	-11.665
CookieProcessor	-11.665
▁abstractmethod	-11.665
0123456789	-11.665
heese	-11.665
ときどき	-11.665
時間がかか	-11.665
直感的	-11.665
は起こりません	-11.665
解決策は	-11.665
▁skipkeys	-11.665
▁新たに作成された	-11.665
に関連した	-11.665
('~/	-11.665
▁coding	-11.665
trial	-11.665
Intel	-11.665
-2022-	-11.665
▁arrive	-11.665
にかかる	-11.665
戦	-11.665
とほとんど同じ	-11.665
最良の	-11.665
巡回	-11.665
pause	-11.665
フォーク	-11.665
独立した	-11.665
▁odd	-11.665
サウンド	-11.665
フルパス	-11.665
▁mill	-11.665
は変わりません	-11.665
talk	-11.665
▁の間の数	-11.665
Newton	-11.665
▁svn	-11.665
開いている	-11.665
regex	-11.665
最新の	-11.665
Combobox	-11.665
マウントポイント	-11.665
▁careful	-11.665
RCP	-11.665
で呼び出された場合	-11.665
フォームフィード	-11.665
dotte	-11.665
のついた	-11.665
SUPPORTED	-11.6651
themename	-11.6651
送出された例外	-11.6651
mesg	-11.6651
▁6.6.	-11.6651
を組み合わせて	-11.6651
二重引用符	-11.6651
Item	-11.6651
軽量	-11.6651
pure	-11.6651
学ぶ	-11.6651
▁検索対象の	-11.6651
Misc	-11.6651
▁say	-11.6651
文字以上の文字列	-11.6651
▁aug	-11.6651
認証局	-11.6651
(3.14	-11.6651
SomeClass	-11.6651
▁measurement	-11.6651
補足	-11.6651
-01-	-11.6651
adjust	-11.6651
pypa	-11.6651
がガベージコレクトされ	-11.6651
か否か	-11.6651
▁ドキュメンテーション文字列	-11.6651
側面	-11.6651
付属し	-11.6651
▁9.3.	-11.6651
ファイルから読み出された	-11.6651
注意事項	-11.6652
デシリアライズ	-11.6652
DONT	-11.6652
読みやすく	-11.6652
▁属性を持つ場合	-11.6652
もうひとつ	-11.6652
コンパイル済みの	-11.6652
▁deliver	-11.6652
マッチしなかった	-11.6652
このメソッドをオーバライド	-11.6652
予定	-11.6652
▁Model	-11.6653
▁unsupported	-11.6653
ログイン	-11.6653
フロー制御	-11.6653
名前付きパイプ	-11.6653
に変換できます	-11.6653
二つ以上の	-11.6653
とみなし	-11.6654
信頼性	-11.6654
述語	-11.6654
をチェックします	-11.6654
/../	-11.6654
初期状態	-11.6654
▁Setting	-11.6654
▁GIL	-11.6654
小文字アルファベット	-11.6655
このプロトコルは	-11.6655
ありえます	-11.6655
関連値は	-11.6655
手順	-11.6656
手法	-11.6656
位置またはキーワード	-11.6656
▁astro	-11.6656
hits	-11.6656
quest	-11.6657
▁1.0.1	-11.6657
:30:	-11.6658
3602879701896397	-11.6658
▁8.6	-11.6658
ariable	-11.6658
一つめの	-11.6659
を作成すること	-11.6659
が提供されます	-11.6659
▁パターンでは	-11.6661
(0.1)	-11.6662
簡単な方法は	-11.6662
よりも先に	-11.6662
QUA	-11.6663
▁環境設定辞書	-11.6665
を適用します	-11.6666
は未定義です	-11.6667
musi	-11.667
tually	-11.6671
の開始を示す	-11.6671
Math	-11.6673
へアクセスする	-11.6676
▁5.5	-11.6678
名前を付け	-11.6679
=33	-11.6679
使い方の例	-11.6679
に残ります	-11.668
226	-11.6681
を置き換えます	-11.6682
verti	-11.6683
uthority	-11.6685
の総数	-11.6687
の前に挿入	-11.6688
recognized	-11.6692
コンストラクタの引数	-11.6694
▁にリセットし	-11.6695
を識別する	-11.6702
delattr	-11.6706
の大部分	-11.6707
を操作します	-11.6712
▁は呼び出し可能オブジェクトで	-11.6715
▁を展開し	-11.6719
オブジェクトのいずれかを返	-11.672
URLopener	-11.6725
を使用しない	-11.6728
law	-11.6732
書かれてい	-11.6734
推定	-11.6748
tea	-11.675
doupdate	-11.6756
たりはしません	-11.6767
失敗した場合は	-11.6784
繰り返したものにマッチ	-11.6784
わけで	-11.6795
が偽なら	-11.6802
▁パスが存在しない	-11.6825
を出力して	-11.6837
▁associate	-11.6842
"+"	-11.6843
.......	-11.6849
を通知し	-11.6854
ヘルプメッセージを表示	-11.6864
+0000	-11.6868
増え	-11.6878
tie	-11.6885
に挿入し	-11.6888
を基数とし	-11.6933
を生成して	-11.6946
▁Indicat	-11.697
▁も使用でき	-11.6983
computer	-11.6983
overwrite	-11.708
好	-11.7082
Mac	-11.7127
ことがあり	-11.7133
に代入する	-11.717
さない場合に	-11.7171
を計算し	-11.7229
の通知を	-11.7246
dition	-11.7251
IBM	-11.7282
がソートされてい	-11.73
がコピーされ	-11.7302
にわたって	-11.7373
▁designe	-11.7376
way	-11.7443
を拡張する	-11.7484
built	-11.75
query	-11.7503
dictionary	-11.7507
を送出します	-11.7508
FIFO	-11.751
Telnet	-11.7511
assert	-11.7511
は新たに作成	-11.7512
super	-11.7513
TarInfo	-11.7514
を初期化する	-11.7514
▁generat	-11.7575
データベースを作成	-11.7606
SEC	-11.7606
オーバーフロー	-11.7621
で置換され	-11.7664
型と値	-11.7682
▁consume	-11.7683
▁データが含まれ	-11.7731
ollSelector	-11.7822
中断され	-11.7876
アーカイブを作成	-11.7974
cient	-11.8019
捨てられます	-11.8032
増	-11.8054
ept	-11.8056
含めることができ	-11.8126
▁giv	-11.8138
にマッチさせる	-11.8161
答	-11.8166
▁leav	-11.818
Enc	-11.8233
▁GetModuleHandle	-11.8254
であったり	-11.8257
上の例で	-11.8273
MSG	-11.8275
dditional	-11.8287
joerd	-11.8292
DecodeError	-11.8304
digi	-11.8304
getfi	-11.8308
レガシー	-11.831
Calendar	-11.831
古	-11.831
htm	-11.8311
割	-11.8312
SERVE	-11.8314
CONN	-11.8314
BACK	-11.8314
フラグメント	-11.8315
勝ち抜き戦	-11.8316
軽	-11.8316
処	-11.8316
ロックの状態をアンロック	-11.8316
走	-11.8316
出てくる	-11.8316
やりかた	-11.8316
ツ	-11.8316
変わらない	-11.8316
ァ	-11.8316
ちょっと	-11.8316
換	-11.8316
を切り替え	-11.8316
普	-11.8316
GUI	-11.8316
頻繁に	-11.8316
マウス	-11.8316
をフェッチ	-11.8317
をもたらす	-11.8317
月曜	-11.8317
abstract	-11.8317
件	-11.8317
バッファをフラッシュし	-11.8317
浅	-11.8317
構造体と共用体	-11.8317
どうやって	-11.8317
グラフィ	-11.8317
プロシジャ	-11.8317
捉	-11.8317
破棄し	-11.8317
符	-11.8317
===========	-11.8317
とほぼ同じ	-11.8317
ゲ	-11.8317
デコーディング	-11.8317
固定小数点	-11.8317
PasswordMgrWith	-11.8317
とは対照的に	-11.8317
アップデート	-11.8317
ミニ言語	-11.8317
▁列挙型のメンバー	-11.8317
リターンコード	-11.8317
最も内側の	-11.8317
本当の	-11.8317
長形式のオプション	-11.8317
頼	-11.8317
huffle	-11.8317
marshall	-11.8317
の平方根	-11.8317
コネクションの相手側	-11.8317
ユ	-11.8317
多重集合	-11.8317
▁handleSlide	-11.8317
に基づき	-11.8317
名づけられた	-11.8317
発見された	-11.8317
3.1.1.3	-11.8317
BufferedRWPair	-11.8317
DOCUMENT	-11.8317
GenericAlias	-11.8317
JoinableQueue	-11.8317
Ordinal	-11.8317
PERSON	-11.8317
RDONLY	-11.8317
REALTIME	-11.8317
StreamRecoder	-11.8317
dangling	-11.8317
lazy	-11.8317
maketrans	-11.8317
mysqld	-11.8317
punctuation	-11.8317
radians	-11.8317
slideshow	-11.8317
statvfs	-11.8317
suspend	-11.8317
▁Calculat	-11.8317
が続いたもの	-11.8317
ことを推奨	-11.8317
そうでないなら	-11.8317
に合致する	-11.8317
クラスまたはファクトリ関数	-11.8317
データや認証されていないデータを	-11.8317
パーセントエンコードされた	-11.8317
ボトムアップ	-11.8317
ユニットテスト	-11.8317
詞	-11.8317
238095	-11.8317
Accept	-11.8317
BINARY	-11.8317
DEPTH	-11.8317
Directory	-11.8317
EncodeError	-11.8317
FINISH	-11.8317
FLAGS	-11.8317
HAPPY	-11.8317
IGNORECASE	-11.8317
IMMUTABLE	-11.8317
IRWX	-11.8317
LPCWSTR	-11.8317
LoggerAdapter	-11.8317
NUMERIC	-11.8317
Network	-11.8317
OLUM	-11.8317
OPTIONAL	-11.8317
OPTIONS	-11.8317
PROF	-11.8317
PUBLIC	-11.8317
Recursion	-11.8317
SHAKE	-11.8317
SIGNAL	-11.8317
SUPPRESS	-11.8317
TimeoutExpired	-11.8317
Typical	-11.8317
Updated	-11.8317
board	-11.8317
breakpointhook	-11.8317
dimensional	-11.8317
gethostbyaddr	-11.8317
imaginary	-11.8317
maxtasksperchild	-11.8317
mlcharrefreplace	-11.8317
opAsyncIteration	-11.8317
quiet	-11.8317
quota	-11.8317
rimitive	-11.8317
rocedure	-11.8317
simultaneous	-11.8317
trength	-11.8317
xperimental	-11.8317
▁BrokenPipeError	-11.8317
▁Initialize	-11.8317
▁Shake	-11.8317
▁Successful	-11.8317
▁TARGET	-11.8317
▁collision	-11.8317
▁conflict	-11.8317
▁convention	-11.8317
▁credentials	-11.8317
▁dictionaries	-11.8317
▁duplicate	-11.8317
▁dwFlags	-11.8317
▁elapsed	-11.8317
▁exhaust	-11.8317
▁expansion	-11.8317
▁happened	-11.8317
▁ingredients	-11.8317
▁multiplication	-11.8317
▁occurrence	-11.8317
▁potential	-11.8317
▁principal	-11.8317
▁repetition	-11.8317
▁で規定されてい	-11.8317
▁元になったマッピングの	-11.8317
っていく	-11.8317
に翻訳され	-11.8317
のように振る舞う	-11.8317
は簡単です	-11.8317
を助ける	-11.8317
インポーター	-11.8317
クローン	-11.8317
シグナルハンドラが例外を起こ	-11.8317
シングルトン	-11.8317
デザイン	-11.8317
ナノ秒単位の時刻を	-11.8317
ロシア	-11.8317
下ろします	-11.8317
体字中国語	-11.8317
共有メモリから割り当てられた	-11.8317
埋め込み	-11.8317
実数軸に沿って	-11.8317
抽象文字	-11.8317
捕捉されなかった	-11.8317
文字列に対して呼ばれます	-11.8317
述べます	-11.8317
Access	-11.8317
BaseCGIHandler	-11.8317
Duplicate	-11.8317
SHUT	-11.8317
challenge	-11.8317
popular	-11.8317
populate	-11.8317
registry	-11.8317
robotparser	-11.8317
template	-11.8317
▁LRU	-11.8317
▁WINFUNCTYPE	-11.8317
▁lfactor	-11.8317
▁precise	-11.8317
▁quoting	-11.8317
▁unchanged	-11.8317
▁ステートメント	-11.8317
▁形式の文字列書式化	-11.8317
を参考に	-11.8317
を引き継ぎま	-11.8317
を得るには	-11.8317
ネゴシエーション	-11.8317
悪意を持って作成されたデータに対	-11.8317
抽象プロパティ	-11.8317
数え上げ	-11.8317
書式化指定子の	-11.8317
符号無し整数	-11.8317
gettempprefix	-11.8317
tgtkey	-11.8317
▁Perform	-11.8317
▁constrain	-11.8317
▁rfactor	-11.8317
▁の呼び出しがブロックしないこと	-11.8317
の正当性	-11.8317
エントロピー	-11.8317
カスタムフィルタチェイン	-11.8317
Common	-11.8317
ROW	-11.8317
TreeBuilder	-11.8317
linux	-11.8317
maintainer	-11.8317
morph	-11.8317
シンタックス	-11.8317
モジュール検索パス	-11.8317
並べられた	-11.8317
実行時コンテキスト	-11.8317
的根拠	-11.8317
currvalue	-11.8317
storage	-11.8317
▁Security	-11.8317
▁が非負の	-11.8317
が存在しないときには	-11.8317
とりわけ	-11.8317
エミュレータ	-11.8317
数値として比較し	-11.8317
Rational	-11.8317
timedwait	-11.8317
▁Also	-11.8317
キャラクターデバイス	-11.8317
相互排他	-11.8317
[-+]?	-11.8317
▁OpenBSD	-11.8317
▁life	-11.8317
に合うように	-11.8317
オンライン	-11.8317
コンテキストマネージャーとして	-11.8317
パケット	-11.8317
引数同士の	-11.8317
日付と時刻	-11.8317
現在のファイル位置	-11.8317
▁を上げる	-11.8317
を満たさな	-11.8317
コンパイル済み正規表現	-11.8317
リトライするようになりました	-11.8317
順序付き辞書	-11.8317
▁で指定されたフラグをセットし	-11.8317
円	-11.8317
Install	-11.8317
ことを意図しています	-11.8317
グローバルのデフォルト	-11.8317
ユースケース	-11.8317
上手く	-11.8317
▁respect	-11.8317
▁勧告で	-11.8317
と同一です	-11.8317
▁bill	-11.8317
本物の	-11.8317
▁エラー処理を実装します	-11.8317
joe	-11.8317
▁[1,2,3]	-11.8317
再帰レベルを	-11.8317
前もって	-11.8317
見つからないとき	-11.8317
の取り扱い	-11.8317
Address	-11.8317
LZMADecompressor	-11.8317
robin	-11.8317
が優先され	-11.8317
使用法メッセージ	-11.8317
▁tofiledate	-11.8317
と組み合わせて	-11.8317
捨	-11.8317
conju	-11.8317
ersonalization	-11.8317
LZMACompressor	-11.8317
nameprep	-11.8317
▁4.7.3.	-11.8317
かそれ以上の	-11.8317
スタンスが初期化されるときに	-11.8317
RDS	-11.8317
▁'3.14	-11.8317
一貫し	-11.8317
Such	-11.8317
がいくつかあります	-11.8317
Target	-11.8317
coord	-11.8317
廃止予定	-11.8317
monthdates	-11.8317
が付いた	-11.8317
として表現される	-11.8317
イテレート可能オブジェクト	-11.8317
lesystemencoding	-11.8317
予測	-11.8317
再入可能ロック	-11.8317
phase	-11.8317
▁SocketHandler	-11.8317
execlp	-11.8317
flagged	-11.8317
脱直列化	-11.8317
いつも	-11.8317
▁が返した	-11.8317
英語	-11.8317
いくつもの	-11.8317
mpDir	-11.8317
fatal	-11.8317
知りたい	-11.8317
CompressionLevel	-11.8317
に記述されている	-11.8317
Eric	-11.8317
切り離され	-11.8317
▁authobject	-11.8317
分かりやす	-11.8317
飛ばされ	-11.8317
=====	-11.8317
正規分布	-11.8317
TextCalendar	-11.8317
▁account	-11.8317
メールボックス中のメッセージ	-11.8317
▁00:00:00	-11.8317
フラグは変	-11.8317
why	-11.8317
GiB	-11.8317
に依存している	-11.8317
お好みの	-11.8317
▁limitation	-11.8317
▁doctest	-11.8317
▁8080	-11.8317
LOOP	-11.8318
PROCESSES	-11.8318
所属	-11.8318
▁で表される	-11.8318
▁の位置にある	-11.8318
ノンブロッキングモードで	-11.8318
2.7.0	-11.8318
isatty	-11.8318
FFFF	-11.8318
を意図して	-11.8318
1.2.0	-11.8318
で置き換えます	-11.8318
ACL	-11.8318
▁サブコマンド	-11.8318
Notebook	-11.8318
▁setsid	-11.8318
Compression	-11.8318
しておきます	-11.8318
font	-11.8319
ptr	-11.8319
に設定することができます	-11.8319
を発行し	-11.8319
dlc	-11.8319
のものと同じ意味	-11.8319
AutoNumber	-11.8319
IVE	-11.8319
プロセスやスレッド	-11.8319
関数を登録する	-11.8319
bdaddr	-11.8319
idna	-11.8319
▁という名の	-11.8319
▁8.5	-11.832
trailneg	-11.832
▁の正確な値	-11.832
▁レスポンスヘッダ	-11.832
pretty	-11.832
くらい	-11.832
▁組込み関数	-11.8321
▁の子クラス	-11.8321
使ってはなりません	-11.8321
"\\"	-11.8322
このシグナルは	-11.8322
▁become	-11.8323
▁を返さない	-11.8324
▁care	-11.8326
を引数として受け取	-11.8327
が一致する	-11.8327
JSONDecodeError	-11.8329
を行っている	-11.833
しようとしている	-11.8331
nonstandard	-11.8332
adapter	-11.8334
ファイルをオープンし	-11.8336
効	-11.8339
発行され	-11.8343
EFT	-11.8344
▁Optional	-11.8344
呼び出すことができ	-11.8345
▁シーケンスが空で	-11.8346
referent	-11.8349
NGE	-11.8353
unning	-11.8353
▁assume	-11.8358
に入る	-11.8358
この引数が与えられていな	-11.8358
▁Oct	-11.8358
▁'0.3	-11.8362
が保証され	-11.8367
▁型のリストに	-11.8367
Another	-11.8371
の優先順位は	-11.8374
▁エンコーディングが見つからな	-11.8376
east	-11.8376
丸括弧で囲った	-11.8379
が続いてい	-11.8381
できるだけ多く	-11.8382
usually	-11.8384
nley	-11.8408
文字列およびバイト列	-11.842
指定しなかった場合	-11.8426
▁12345	-11.8431
まとめられ	-11.8437
▁2.6.2	-11.8444
▁'0.8	-11.845
にまとめた	-11.8472
から取得され	-11.8488
mitted	-11.8498
ないでください	-11.8513
を行えるよう	-11.8532
に移動し	-11.8546
へのアクセスを提供し	-11.8558
pem	-11.8569
でラップし	-11.8611
9999999999999999	-11.8658
affected	-11.8667
'@'	-11.868
をアンパックする	-11.8687
以下で説明	-11.8688
がゼロの場合	-11.8696
に展開され	-11.8701
を結合する	-11.8712
しようとした場合	-11.8769
▁関数に渡され	-11.8802
をスキップする	-11.8863
を引数にと	-11.8874
存在してい	-11.8887
カレント	-11.8931
▁文を実行	-11.8964
を抑制し	-11.8982
を適用して	-11.8996
に指定し	-11.916
を読み書きし	-11.9173
で区切っ	-11.9176
たくない場合	-11.9206
に現れた	-11.9232
を割り当てる	-11.9296
コマンドを実行	-11.9393
に書き込まれる	-11.947
▁文字列に変換し	-11.9475
difference	-11.9501
entries	-11.9504
fallback	-11.951
unique	-11.9513
SQLite	-11.9516
に固有	-11.9533
のライブラリでは	-11.9537
サポートを追加	-11.957
eferred	-11.9615
は廃止され	-11.9628
agged	-11.9676
どちらかの	-11.9678
信頼でき	-11.973
ファイルを読み書きする	-11.9809
ディスクリプタ	-11.9813
アーカイブに追加され	-11.9829
がシンボリックリンクの場合	-11.9836
を除けば	-11.9864
で説明されている	-11.9905
ontainer	-11.991
生じた	-11.9914
定数が定義されてい	-11.994
heme	-11.9982
の目的に	-12.0028
以下のメソッドを提供	-12.0045
▁reduc	-12.0068
という点で	-12.0086
synchronous	-12.0108
▁typ	-12.0132
認	-12.0153
したくな	-12.0173
いうと	-12.0188
HRES	-12.019
PREC	-12.0196
が空であ	-12.0207
を丸括弧で囲	-12.0241
▁Manage	-12.0258
Refere	-12.0266
残ってい	-12.0274
closing	-12.0286
ositional	-12.029
▁employe	-12.0294
▁Certificate	-12.0294
ラムダ	-12.0296
elative	-12.0299
を保持してい	-12.03
▁necessar	-12.0309
nsert	-12.0309
を区切	-12.0311
の仕事	-12.0311
permutation	-12.0311
aemon	-12.0312
高度な	-12.0312
が取り出され	-12.0313
Response	-12.0313
ペ	-12.0314
たいと思う	-12.0314
▁Prior	-12.0314
Connect	-12.0315
曜	-12.0315
散	-12.0315
局	-12.0315
▁999999	-12.0316
抜	-12.0316
復	-12.0316
好みの	-12.0316
Combo	-12.0316
OUR	-12.0316
フィード	-12.0316
アラビア	-12.0316
ロッキング	-12.0316
バックアップファイル	-12.0316
が破損し	-12.0316
問題を回避	-12.0316
Compressor	-12.0316
案	-12.0316
延	-12.0316
を使わずに	-12.0317
自然な	-12.0317
マージ	-12.0317
上で説明した	-12.0317
から外れ	-12.0317
それ以後	-12.0317
エンコーダとデコーダ	-12.0317
エンベロープ	-12.0317
クリック	-12.0317
に準拠している	-12.0317
ナンバ	-12.0317
擬似乱数	-12.0317
書込み可能	-12.0317
mississ	-12.0317
しか評価されません	-12.0317
に由来しています	-12.0317
アライメント	-12.0317
トラップイネーブラ	-12.0317
送出される例外は	-12.0317
augh	-12.0317
キャリッジリターン	-12.0317
収まらない	-12.0317
TestCase	-12.0317
インクルード	-12.0317
ダッシュ	-12.0317
▁accu	-12.0317
コンパイル済みモジュール	-12.0317
モダンな	-12.0317
リダイレクション	-12.0317
Menu	-12.0317
Mixin	-12.0317
YELLOW	-12.0317
によって変わります	-12.0317
に囲まれた	-12.0317
の基礎的な	-12.0317
コンバーター	-12.0317
2.718281828	-12.0317
BigEndian	-12.0317
Custom	-12.0317
DictConfigurator	-12.0317
ExFileSelect	-12.0317
FIPS	-12.0317
ModuleSpec	-12.0317
Remote	-12.0317
Sniffer	-12.0317
Student	-12.0317
multicall	-12.0317
opaque	-12.0317
stereo	-12.0317
かどうかを示す真偽値	-12.0317
のエンコードおよびデコード	-12.0317
インポートされたモジュールが	-12.0317
コンシューマ	-12.0317
フューチャ	-12.0317
ブラックリスト	-12.0317
丸め誤差	-12.0317
付加的な状態情報	-12.0317
余計な	-12.0317
振舞う	-12.0317
束	-12.0317
次元のメモリビュー	-12.0317
Chunk	-12.0317
DatagramHandler	-12.0317
DerivedClassName	-12.0317
DirSelect	-12.0317
EntityRefHandler	-12.0317
Hook	-12.0317
Integer	-12.0317
Title	-12.0317
WinDLL	-12.0317
aggregate	-12.0317
expovariate	-12.0317
fqdn	-12.0317
google	-12.0317
ierarchy	-12.0317
oreign	-12.0317
▁Completer	-12.0317
▁Place	-12.0317
はロードされた共有ライブラリ	-12.0317
を行わずに	-12.0317
エラーが起こった	-12.0317
反映されま	-12.0317
AEAD	-12.0317
AUTO	-12.0317
BLACK	-12.0317
COLNAMES	-12.0317
DECLTYPES	-12.0317
DIAMOND	-12.0317
Development	-12.0317
Flush	-12.0317
GeneratorExit	-12.0317
Group	-12.0317
ISOTP	-12.0317
KEEP	-12.0317
Konqueror	-12.0317
Liechtenstein	-12.0317
Malcolm	-12.0317
PGRP	-12.0317
PROXY	-12.0317
REUSEADDR	-12.0317
Retrieve	-12.0317
Reynolds	-12.0317
SIGALRM	-12.0317
SPEC	-12.0317
SplitResult	-12.0317
TEMP	-12.0317
WHITE	-12.0317
[0-9]	-12.0317
[1,2,3,4,5]	-12.0317
_1987_2006	-12.0317
advice	-12.0317
childNodes	-12.0317
circular	-12.0317
criterion	-12.0317
derivati	-12.0317
duplex	-12.0317
inventory	-12.0317
latten	-12.0317
launch	-12.0317
qualifiedName	-12.0317
radius	-12.0317
semantics	-12.0317
traversal	-12.0317
uplicateFreeEnum	-12.0317
ynchronization	-12.0317
▁Binding	-12.0317
▁CEDILLA	-12.0317
▁Consume	-12.0317
▁Developer	-12.0317
▁Divid	-12.0317
▁Macintosh	-12.0317
▁Mechanism	-12.0317
▁Negotiation	-12.0317
▁NullHandler	-12.0317
▁PermissionError	-12.0317
▁Transform	-12.0317
▁Wrap	-12.0317
▁accessible	-12.0317
▁advance	-12.0317
▁backtick	-12.0317
▁cumulative	-12.0317
▁deterministic	-12.0317
▁development	-12.0317
▁everything	-12.0317
▁fault	-12.0317
▁improve	-12.0317
▁likelihood	-12.0317
▁permission	-12.0317
▁scheduled	-12.0317
▁モジュールで提供されています	-12.0317
▁一様な項目からなる	-12.0317
▁文字列中の全ての文字が	-12.0317
▁直前の正規表現を	-12.0317
が多すぎます	-12.0317
が提供しているメソッドについては	-12.0317
ずっと	-12.0317
ための抽象ベースクラス	-12.0317
づけと	-12.0317
とほぼ等価です	-12.0317
のうちどれか一つ	-12.0317
サポートしなければならないインタ	-12.0317
シミュレーション	-12.0317
スワップを行	-12.0317
ダブルクオーテーションマーク	-12.0317
チャンネル暗号化プロトコルとして	-12.0317
デジタル	-12.0317
ネストできます	-12.0317
ヤ	-12.0317
例を挙げ	-12.0317
取り得る値	-12.0317
差分形式の行	-12.0317
時間を秒数で指定します	-12.0317
構造化された解析結果	-12.0317
純粋な	-12.0317
転送処理済みのデータ	-12.0317
運	-12.0317
AUSTRIA	-12.0317
BaseClassName	-12.0317
Progressbar	-12.0317
SIGKILL	-12.0317
Specify	-12.0317
alphabet	-12.0317
internationaliz	-12.0317
lptdesc	-12.0317
oodbye	-12.0317
pantone	-12.0317
penguin	-12.0317
sticky	-12.0317
volve	-12.0317
▁Boolean	-12.0317
▁General	-12.0317
▁acct	-12.0317
▁barrier	-12.0317
▁copied	-12.0317
▁junction	-12.0317
▁respond	-12.0317
▁routine	-12.0317
▁shortcut	-12.0317
▁ファイル名拡張子を	-12.0317
アクセスできなかった場合は	-12.0317
パーセン	-12.0317
ファンクションキー	-12.0317
他のコンテナについては	-12.0317
相互運用	-12.0317
自然対数の底	-12.0317
('2011-11-04	-12.0317
EARTH	-12.0317
ElementInclude	-12.0317
ErrorProcessor	-12.0317
Locale	-12.0317
STATUS	-12.0317
SUSPEND	-12.0317
TEventLogHandler	-12.0317
TooShort	-12.0317
branch	-12.0317
eploy	-12.0317
ognizedException	-12.0317
ticket	-12.0317
volume	-12.0317
▁LoadLibrary	-12.0317
▁dishes	-12.0317
▁dumbdbm	-12.0317
▁logRequests	-12.0317
によって決まります	-12.0317
を混在させ	-12.0317
ハードリンク	-12.0317
フェースについての情報は	-12.0317
プロセスのプロセスグループ	-12.0317
マネジャ	-12.0317
今のところ	-12.0317
特化した	-12.0317
現実的な	-12.0317
背後にある	-12.0317
▁HOW	-12.0317
サブクラスでオーバーライドされ	-12.0317
=8192	-12.0317
DatabaseError	-12.0317
Frameworks	-12.0317
PARSING	-12.0317
▁decorate	-12.0317
あいまいな	-12.0317
のオーバーヘッド	-12.0317
ガイドライン	-12.0317
スリープ	-12.0317
ホームページ	-12.0317
元になる生ストリームが	-12.0317
出てきます	-12.0317
木の根要素を	-12.0317
Description	-12.0317
Modification	-12.0317
[0:1]	-12.0317
libedit	-12.0317
surround	-12.0317
▁debugging	-12.0317
▁visit	-12.0317
かつその値が真であ	-12.0317
が求められ	-12.0317
に等しくなります	-12.0317
コンパイル済みパターンを使うのと	-12.0317
デコレートされ	-12.0317
出力される数値は	-12.0317
同期アクセスに	-12.0317
水平方向の	-12.0317
空文字になります	-12.0317
datum	-12.0317
wiki	-12.0317
▁dklen	-12.0317
にもかかわらず	-12.0317
ガンマ	-12.0317
▁Small	-12.0317
▁chosen	-12.0317
▁lzc	-12.0317
あたかも	-12.0317
が長すぎ	-12.0317
であってはなりません	-12.0317
に類似した	-12.0317
を使おうとすると	-12.0317
ピクセル単位	-12.0317
標準の設定では	-12.0317
規定された	-12.0317
で開いた	-12.0317
を考えてください	-12.0317
クロスプラットフォーム	-12.0317
依	-12.0317
大半の	-12.0317
実行を再開	-12.0317
非付属的データ	-12.0317
unsetenv	-12.0317
▁behave	-12.0317
と書式化パラメータ	-12.0317
になってしまう	-12.0317
にマップする辞書	-12.0317
の受け渡し	-12.0317
インタラクティブ	-12.0317
ユーザ定義クラス	-12.0317
策	-12.0317
▁のいくつかのメソッドに	-12.0317
の前の部分	-12.0317
右下角	-12.0317
▁種類あります	-12.0317
▁限定マッチング	-12.0317
を付け加え	-12.0317
を受けつけ	-12.0317
マルチスレッディング	-12.0317
黙	-12.0317
transition	-12.0317
▁retcode	-12.0317
gettempdir	-12.0317
▁などのフラグを	-12.0317
Secur	-12.0317
Zero	-12.0317
lang	-12.0317
それ自体が	-12.0317
もらう	-12.0317
大きければ	-12.0317
はっきり	-12.0317
Baked	-12.0317
expired	-12.0317
▁Tools	-12.0317
▁alert	-12.0317
▁で表した	-12.0317
が上げられ	-12.0317
棄	-12.0317
複数のスレッドから	-12.0317
ensive	-12.0317
▁pkg	-12.0317
としても知られています	-12.0317
を増やす	-12.0317
幾	-12.0317
Joe	-12.0317
▁Subprocess	-12.0317
▁canonname	-12.0317
▁一部のシステムでは	-12.0317
subcommands	-12.0317
▁6.2.9.	-12.0317
初期化子を受け取り	-12.0317
左から右に	-12.0317
に続けて	-12.0317
単語の境界	-12.0317
に依存した	-12.0317
使う必要はな	-12.0317
▁arise	-12.0317
のフォーマット指定子	-12.0317
内部フラグの値	-12.0317
DELETE	-12.0317
MRO	-12.0317
derive	-12.0317
で確認できます	-12.0317
ビットの正の整数	-12.0317
Cache	-12.0317
引数無しの	-12.0317
erase	-12.0317
マッチさせたい	-12.0317
<![	-12.0317
InvalidStateErr	-12.0317
可視ヘッダは	-12.0317
にはならない	-12.0317
ユーザ定義オブジェクト	-12.0317
▁----------	-12.0317
誤解を	-12.0317
.1-20	-12.0317
ためのツールを提供しています	-12.0318
Bool	-12.0318
▁が呼ばれる前に	-12.0318
引数なしで呼び出され	-12.0318
50022	-12.0318
CLOSE	-12.0318
▁文字からなる文字列	-12.0318
gravit	-12.0318
PYTHONPATH	-12.0318
IAC	-12.0318
▁simulat	-12.0318
インスタンスを新たに	-12.0318
TURE	-12.0318
Spin	-12.0318
に設定することで	-12.0318
で宣言されている	-12.0319
Help	-12.0319
ディレクトリを参照してい	-12.032
CodecInfo	-12.032
から成る	-12.032
が簡単になる	-12.032
LLBACK	-12.032
MyStruct	-12.032
必要とされ	-12.0321
の個数	-12.0321
は表示されません	-12.0322
ているものと仮定し	-12.0323
ublicId	-12.0323
おうとし	-12.0324
ターゲットに代入	-12.0324
で表したもの	-12.0324
に気づ	-12.0325
はプラットフォームに依存します	-12.0326
同名の属性に	-12.0327
singleton	-12.0328
タイムアウト設定が	-12.0329
▁ビットの整数	-12.0329
Hashable	-12.033
に接続されている	-12.033
符号付きゼロ	-12.033
1945	-12.0331
から読み出され	-12.0334
手段で	-12.0336
サポートしていない場合	-12.0338
くるようにし	-12.0339
わかる	-12.0339
NotFoundErr	-12.0341
と組み合わせる	-12.0342
のためだけに存在し	-12.0345
されたあと	-12.0346
と判断され	-12.0346
▁Mini	-12.0351
1980	-12.0352
closure	-12.0352
meth	-12.0358
以下のテーブルに	-12.0363
('1.00	-12.0366
Callable	-12.0366
"~"	-12.0366
を調べるには	-12.0375
▁serializ	-12.0384
オプションのキーワード引数で	-12.0388
を引数に取	-12.0398
.5111111	-12.04
'1,2,	-12.0414
の起動時	-12.0426
に正規化され	-12.0437
ECOND	-12.0441
▁属性を持ってい	-12.0469
DBM	-12.0477
consumer	-12.0478
に属してい	-12.0491
は必要ない	-12.0523
から検索され	-12.0557
+01:00	-12.0593
つめの引数	-12.0596
▁distin	-12.0673
2038	-12.0677
デフォルトの設定で	-12.0789
{2}	-12.0803
パスがシンボリックリンク	-12.083
例外を処理し	-12.0839
にコピーし	-12.0854
を読み書きするための	-12.0854
HANG	-12.0859
間に空白	-12.086
を明示的に指定し	-12.0964
関数またはメソッド	-12.1016
を持っていれば	-12.1036
と衝突し	-12.1085
自動的に閉じられ	-12.1247
xxxx	-12.1311
▁を呼び	-12.133
セーフな	-12.1374
が送信され	-12.1447
にもマッチし	-12.1594
格納されてい	-12.1671
以下のメソッドを定義し	-12.1942
▁Raise	-12.1966
が与えられてい	-12.1997
exponent	-12.2
フォーマット済み文字列リテラル	-12.2001
wsgi	-12.2005
HTTPPasswordMgr	-12.2005
使用できなく	-12.2005
product	-12.2005
universal	-12.2006
repeat	-12.2011
BLAKE	-12.2013
Counter	-12.2013
PurePosixPath	-12.2017
NotImplemented	-12.2018
てはならない	-12.2045
multimod	-12.2146
▁進浮動小数	-12.2255
▁convenien	-12.2286
切	-12.238
かどうかを制御	-12.25
が等しく	-12.2514
のリストに追加され	-12.2617
.141592653589793	-12.2637
オリジナル	-12.2673
識	-12.2703
Window	-12.2752
かどうかを決定	-12.2759
▁remov	-12.2765
dentifiers	-12.2774
毎	-12.2774
continu	-12.2784
プロトタイプ	-12.2803
▁Valid	-12.2806
=999999	-12.2807
Public	-12.2808
信	-12.2809
aylight	-12.2812
escrib	-12.2812
quivalent	-12.2815
オブジェクトが生き	-12.2815
ファイ	-12.2815
勝	-12.2815
avail	-12.2815
SUPPORT	-12.2816
言い換え	-12.2816
たどった	-12.2816
おおむね	-12.2816
▁では定義されて	-12.2816
Temporary	-12.2816
モニタ	-12.2816
仕	-12.2816
例外を投げ	-12.2816
脱	-12.2816
サウンドカード	-12.2816
pproximat	-12.2816
▁success	-12.2816
が既に存在していた場合	-12.2816
▁Back	-12.2816
ntifier	-12.2816
内部状態を持たない	-12.2816
Script	-12.2816
07-08	-12.2816
ユニバーサル	-12.2816
サンプリング	-12.2816
あてはま	-12.2816
放	-12.2816
タイム	-12.2816
ニーモニック	-12.2816
パイプやキュー	-12.2816
代替手段	-12.2816
Decompressor	-12.2816
汎用十進演算仕様	-12.2816
定後読みアサーション	-12.2816
具	-12.2816
010203	-12.2816
つなげ	-12.2816
オブジェクトのアイデンティティ	-12.2816
メーリングリスト	-12.2816
再帰レベルがゼロ	-12.2816
品	-12.2816
と思われる	-12.2817
への強参照が	-12.2817
コンポーネント	-12.2817
スピード	-12.2817
ドラッグ	-12.2817
プロセスもしくはスレッド	-12.2817
秘密鍵と証明書	-12.2817
に影響を及ぼし	-12.2817
プレフィクス	-12.2817
書き込んだり	-12.2817
直前にくる	-12.2817
が欠けてい	-12.2817
HtmlDiff	-12.2817
nntp	-12.2817
このモジュールで定義される	-12.2817
とは限らない	-12.2817
のビデオ	-12.2817
の原因になる	-12.2817
クックブック	-12.2817
サードパーティの	-12.2817
シャッフル	-12.2817
タプルもソートされた順	-12.2817
メルセンヌツイスタ	-12.2817
協調的な	-12.2817
慮	-12.2817
有名な	-12.2817
精度指定の後に変換したい	-12.2817
累積的な重み	-12.2817
SHOW	-12.2817
イントロ	-12.2817
エンティティを取り込みま	-12.2817
折	-12.2817
録音のソース	-12.2817
▁で始まっ	-12.2817
バイナリーストリーム	-12.2817
メールユーザエージェント	-12.2817
DocXMLRPC	-12.2817
MAGENTA	-12.2817
UNAVAILABLE	-12.2817
tunnel	-12.2817
▁('2006-01-05',	-12.2817
▁EBCDIC	-12.2817
▁の整数倍の	-12.2817
▁以上または精度以下の場合には	-12.2817
するにあたって	-12.2817
ひと月分のカレンダーを	-12.2817
をバイト単位で指定	-12.2817
アイテムが取り出せるようにな	-12.2817
ステート	-12.2817
ソケットにデータを送信し	-12.2817
チャネルバインディングのタイプ	-12.2817
名前と値のペア	-12.2817
明示的な書式文字列で	-12.2817
登録済みのファイル	-12.2817
経過時間	-12.2817
英数文字	-12.2817
突	-12.2817
ホ	-12.2817
協	-12.2817
偏	-12.2817
繁	-12.2817
頻	-12.2817
枝	-12.2817
英	-12.6148
継	-12.6149
画	-12.615
責	-12.615
界	-12.615
描	-12.615
縮	-12.615
照	-12.615
副	-12.615
秘	-12.615
到	-12.615
判	-13.1134
偶	-13.1139
乱	-13.1141
範	-13.1147
制	-13.1149
ゼ	-13.115
矢	-13.115
果	-13.115
費	-13.115
詳	-13.115
張	-13.115
抑	-13.115
世	-13.115
掛	-14.0837
途	-14.0897
辞	-14.1089
埋	-14.1135
巡	-14.1146
丸	-14.1147
布	-14.1148
歴	-14.1148
貫	-14.1148
精	-14.1149
却	-14.1149
釈	-14.1149
祖	-14.1149
留	-14.1149
閉	-14.1149
編	-14.1149
抵	-14.1149
挿	-14.1149
背	-14.1149
択	-14.115
剰	-14.115
史	-14.115
曲	-14.115
警	-14.115
均	-14.115
典	-14.115
敗	-14.115
潜	-14.115
団	-14.115
造	-14.115
波	-14.115
撃	-14.115
較	-14.115
網	-14.9764
疑	-14.9765
狭	-14.9766
旦	-14.9767
施	-14.9768
押	-14.9769
逐	-14.977
蔽	-14.9771
罫	-14.9772
料	-14.9773
巨	-14.9774
射	-14.9775
ぱ	-14.9776
陥	-14.9777
脈	-14.9778
翻	-14.9779
私	-14.978
教	-14.9781
拒	-14.9782
忘	-14.9783
己	-14.9784
善	-14.9785
肢	-14.9786
練	-14.9787
矩	-14.9788
洗	-14.9789
技	-14.979
凍	-14.9791
冗	-14.9792
ヌ	-14.9793
給	-14.9794
箇	-14.9795
触	-14.9796
宜	-14.9797
越	-14.9798
署	-14.9799
維	-14.98
寄	-14.9801
士	-14.9802
隣	-14.9803
礎	-14.9804
循	-14.9805
妙	-14.9806
ヨ	-14.9807
軸	-14.9808
程	-14.9809
播	-14.981
験	-14.9811
興	-14.9812
緒	-14.9813
議	-14.9814
禁	-14.9815
曖	-14.9816
景	-14.9817
昧	-14.9818
鎖	-14.9819
護	-14.982
映	-14.9821
妥	-14.9822
夏	-14.9823
垂	-14.9824
遠	-14.9825
潔	-14.9826
擬	-14.9827
委	-14.9828
働	-14.9829
暦	-14.983
隠	-14.9831
軟	-14.9832
脆	-14.9833
柔	-14.9834
搬	-14.9835
隔	-14.9836
遭	-14.9837
遇	-14.9838
跡	-14.9839
衝	-14.984
汎	-14.9841
攻	-14.9842
央	-14.9843
落	-14.9844
活	-14.9845
因	-14.9846
累	-14.9847
勧	-14.9848
透	-14.9849
該	-14.985
虚	-14.9851
伴	-14.9852
須	-14.9853
紹	-14.9854
履	-14.9855
助	-14.9856
声	-14.9857
詰	-14.9858
即	-14.9859
双	-14.986
排	-14.9861
唯	-14.9862
業	-14.9863
功	-14.9864
領	-14.9865
憶	-14.9866
将	-14.9867
片	-14.9868
導	-14.9869
飾	-14.987
添	-14.9871
静	-14.9872
風	-14.9873
概	-14.9874
域	-14.9875
ゆ	-14.9876
座	-14.9877
監	-14.9878
況	-14.9879
包	-14.988
令	-14.9881
転	-14.9882
獲	-14.9883
停	-14.9884
伝	-14.9885
破	-14.9886
備	-14.9887
ゾ	-14.9888
公	-14.9889
避	-14.989
ヒ	-14.9891
像	-14.9892
術	-14.9893
低	-14.9894
絶	-14.9895
築	-14.9896
派	-14.9897
想	-14.9898
厳	-14.9899
繰	-14.99
降	-14.9901
替	-14.9902
致	-14.9903
抽	-14.9904
響	-14.9905
影	-14.9906
管	-14.9907
条	-14.9908
並	-14.9909
納	-14.991
階	-14.9911
優	-14.9912
係	-14.9913
弧	-14.9914
密	-14.9915
探	-14.9916
縛	-14.9917
題	-14.9918
去	-14.9919
由	-14.992
展	-14.9921
宣	-14.9922
仮	-14.9923
少	-14.9924
ゴ	-14.9925
反	-14.9926
登	-14.9927
省	-14.9928
奨	-14.9929
略	-14.993
立	-14.9931
評	-14.9932
暗	-14.9933
尾	-14.9934
殊	-14.9935
御	-14.9936
振	-14.9937
層	-14.9938
専	-14.9939
許	-14.994
違	-14.9941
簡	-14.9942
待	-14.9943
求	-14.9944
刻	-14.9945
承	-14.9946
便	-14.9947
般	-14.9948
析	-14.9949
序	-14.995
互	-14.9951
圧	-14.9952
挙	-14.9953
囲	-14.9954
戻	-14.9955
拡	-14.9956
末	-14.9957
索	-14.9958
視	-14.9959
ぞ	-14.996
浮	-14.9961
確	-14.9962
ほ	-14.9963
説	-14.9964
削	-14.9965
ょ	-14.9966
起	-14.9967
容	-14.9968
態	-14.9969
ミ	-14.997
始	-14.9971
操	-14.9972
情	-14.9973
直	-14.9974
味	-14.9975
了	-14.9976
ボ	-14.9977
証	-14.9978
環	-14.9979
ビ	-14.998
ピ	-14.9981
境	-14.9982
得	-14.9983
報	-14.9984
価	-14.9985
複	-14.9986
ワ	-14.9987
ザ	-14.9988
標	-14.9989
演	-14.999
ハ	-14.9991
除	-14.9992
供	-14.9993
準	-14.9994
整	-14.9995
構	-14.9996
渡	-14.9997
ネ	-14.9998
置	-14.9999
必	-15
含	-15.0001
示	-15.0002
持	-15.0003
込	-15.0004
設	-15.0005
参	-15.0006
能	-15.0007
作	-15.0008
更	-15.0009
ォ	-15.001
ィ	-15.0011
グ	-15.0012
ュ	-15.0013
使	-15.0014
ョ	-15.0015
シ	-15.0016
ェ	-15.0017
